#version: 0.2
Ġ Ġ
ĠĠ ĠĠ
ĠĠ Ġ
ĠĠĠĠ ĠĠĠĠ
s e
\ "
ĠĠĠĠ ĠĠĠ
i n
r e
o n
t e
) \
s t
o r
d e
Ġ =
l e
t h
l f
se lf
m e
: \
a l
t i
ĠĠĠĠĠĠĠĠ ĠĠĠ
Ġ a
e r
Ġ i
Ġ '
a r
Ġ c
Ġ f
a n
Ġ self
a t
e n
r o
, \
Ġ \"
a s
m p
ti on
Ġ re
u r
Ġ th
g e
Ġ p
Ġ n
c e
) :\
u e
Ġ t
Ġ s
e l
a me
in g
Ġ in
de f
- -
c o
se r
ĠĠĠĠĠĠĠĠ ĠĠĠĠĠĠĠĠ
a te
Ġ #
Ġ o
l o
Ġth e
' ,
c t
u n
f i
l i
m o
r i
Ġ d
p e
# #
Ġ (
\ \
Ġ b
r a
n t
e x
c h
u t
s i
Ġ w
Ġi f
\" \"
ĠĠĠĠĠĠĠĠ ĠĠĠĠĠĠĠ
c k
Ġ def
i d
u l
n ame
' :
a d
ur n
t urn
or t
m a
te r
o t
d i
( '
ge t
Ġ [
_ _
0 0
Ġf or
Ġi s
i s
Ġre turn
v al
ser t
l a
on e
q u
t y
e s
u p
. \
o l
p a
te st
el d
Ġt o
se t
Ġa n
mp ort
Ġ 0
as s
c on
Ġ T
e d
0 9
] \
at a
e t
-- --
i l
Ġ 1
c tion
ro m
( )\
i t
s s
v er
Ġ h
Ġ\" \"\"
Ġ {
r ue
l s
N one
st r
) )\
k e
## ##
Ġ m
b le
v i
ul t
) ,\
Ġc on
in t
Ġo f
Ġa s
as sert
v e
de r
= =
val ue
Ġ ex
mo de
r or
g s
t r
d u
Ġ u
[ '
t a
) ,
c l
' )\
h e
Ġc o
Ġn ot
' ]
( \"
an d
Ġ +
Ġ -
me nt
a tion
Ġ %
e ct
p p
. _
p tion
\" \
i le
b j
Ġan d
Ġi mport
t o
\" ,
re s
i eld
Ġ \
Ġ S
u m
al l
i th
si on
ĠĠĠĠĠĠĠĠ ĠĠĠĠĠĠĠĠĠĠĠ
f rom
p ro
a m
a se
Ġ e
p ar
or m
Ġ test
a ge
' ,\
Ġ C
fi le
en t
l in
te d
qu al
du le
: :
Ġ= =
Ġ\"\"\" \
Ġ P
ti me
Ġ st
Ġ A
i g
ke y
Ġ el
Ġ de
mp le
h o
Ġ None
en d
ty pe
T rue
č Ċ
Ġ "
mo dule
x t
Ġ F
pa th
Ġ g
Ġ 2
R e
p t
I n
] ,
E r
p o
u s
Ġ _
e w
u b
cl ass
' \
li st
al se
Ġ r
y pe
( )
Ġ *
le n
Ġre s
Er ror
bj ect
q ue
an g
n from
Ġ or
Ġb e
b u
n o
Ġn ame
= '
o d
f o
ar gs
ad d
te xt
i f
E qual
d ata
a ck
h t
\" )\
p er
a ult
i se
o ut
s h
a pp
an ce
Ġ lo
p ut
Ġth at
Ġw ith
' )
i st
fi eld
Ġ se
#### ####
---- ----
s c
un ction
F ield
te m
Ġ me
f orm
z e
E R
e st
= \"
assert Equal
\" ,\
mode ls
Ġel se
a ble
l y
re d
n def
Ġ( '
Ġa r
p y
Ġ value
Ġ I
ur l
ĠĠĠĠ Ġ
y s
c i
Ġas sert
] )\
t ri
r y
Ġ :
ang o
an ge
j ango
( \
d b
Ġ D
lo w
m m
d o
n s
Ġf ile
co de
Ġ }
Ġ ma
fi g
\" :
f f
d ate
as k
ch e
ar t
Ġd ata
Ġ y
09 3
que st
Ġp ro
u re
Ġ x
o ur
== ==
Ġ L
m b
re ate
ri te
w or
n i
ct or
c a
Ġ M
str ing
Ġ get
co mp
r int
> >
lin e
o de
i c
Ġf unction
Ġ set
Ġ 3
Ġ v
I N
) .
b o
th od
A T
d d
st ance
Ġ __
Ġ{ '
a g
de x
u ser
0 1
ce s
th on
re nt
f a
Ġ ra
l ate
p on
Ġ <
ce ss
Ġp ar
at ch
n class
Ġd i
\"\" \"\
Ġ E
Ġ en
ĠĠĠĠĠĠĠĠĠĠĠĠĠĠĠĠ ĠĠĠĠĠĠĠĠĠĠĠĠĠĠĠĠ
t p
o p
Ġf rom
Ġ un
Ġ on
" :
p re
[ \"
un t
ĠT rue
di r
at or
Ġd o
ra y
S T
p i
o k
field s
p la
ti c
Ġ al
se d
o bject
f e
k w
Ġa c
pon se
m in
par am
re ad
er ror
ro up
Ġc h
ce pt
ar y
O N
ni mport
Ġo s
. .
Ġ G
Ġ N
a c
Ġi t
a der
app end
n e
ĠĠĠĠĠĠĠĠĠĠĠĠĠĠĠĠ ĠĠĠĠĠĠĠ
Ġ `
Ġp a
te nt
__ (
ex t
il d
ĠĠĠĠĠĠĠĠĠĠĠĠĠĠĠĠ ĠĠ
y thon
mode l
Ġra ise
' }
Ġw h
th er
j o
V al
o m
Ġ B
te s
c ted
i p
ĠF alse
li c
an s
C on
Ġo ut
Ġres ult
F alse
ver sion
Ġ )\
Ġt ype
d s
09 2
m l
Ġth is
Ġn p
i r
\" ]
sc ri
0 4
d jango
m s
al i
qu i
u th
Ġ[ ],
R E
Ġn s
o s
a b
a ve
Ġa t
val id
T est
co l
w n
( [
Ġw e
Ġ mo
te mp
Ġ U
Ġc l
Ġp rint
he ck
p ort
s on
our ce
re ss
g in
kw args
Ġb y
f or
g g
a mple
re n
se s
v ent
t ing
tri bu
in fo
in d
un d
ĠĠĠĠĠĠĠĠĠĠĠĠĠĠĠĠ ĠĠĠĠĠĠĠĠ
Ġ len
mm and
te n
Ġt ry
u ment
vi ce
( ):\
Ġ Re
form at
la b
Ġ W
09 4
L E
li b
* *
Ġ O
ss age
tr y
o me
/ /
ĠĠĠĠ ĠĠ
Ġ @
Ġ module
in it
T ype
um b
de d
p h
di ct
Ġf ield
ĠT he
Ġ key
def ault
ma x
g th
Ġ list
lo ck
en er
b ase
in stance
lab el
Val ue
Ġdef ault
me thod
ce ption
le r
Ġex cept
Ġf ol
il l
ĠP ython
w a
ar k
Ġa re
Ġ time
li sh
Ġu ser
ul d
A L
c al
Ġ* *
ar i
d a
o re
. __
v el
ti ve
1 0
######## ########
jo in
c ur
Ġ 4
b ack
i m
at us
ul l
C h
Ġ{ \
Ġt ask
O R
Ġn ew
si ze
c ation
Ġp re
ur se
Ġ H
u st
umb er
co mple
li ent
Ġ l
co unt
Ġ ro
ter s
er y
Ġc ls
Ġs ho
Ġfol low
lo ad
Ġp ass
s p
Ġ >
Ġ R
Ġ str
de n
at tr
Ġel if
Ġ le
st ate
re e
3 2
Ġp o
j son
E T
ho st
in dex
} \
d ing
p en
ig n
con fig
Ġh as
c reate
wor k
Ġn o
e c
st art
Ġ 5
-------- --------
1 2
Ġs i
ar n
up date
u ti
E N
s ub
I T
mp t
Ġfollow ing
C o
6 4
Ġs ys
co m
n et
>> >
D e
Ġc an
Ġs up
vi ew
ar ray
A R
==== ====
ption s
' ]\
ar d
g roup
wor d
I D
Ġ \\
K e
Ġo bject
Ġcl ass
W rite
: //
pe cted
E x
c or
o u
w rite
an t
pro mpt
Ġ} ,
k en
' ),\
h is
che ck
o ck
b y
< /
Ġ ,
Ġfor m
re quest
ar g
i me
ma ge
li t
Ġpa th
comple tion
w ith
len gth
Ġc ol
Ġ k
Ġ la
# \
le ment
Ġac comp
Ġaccomp lish
Ġ[ ]\
" ,
Ġaccomplish es
ta in
ma in
Ke y
lin k
Ġ >>>
t ra
Ġre quest
Ġw ill
scri ption
lo g
un c
u te
Ġar g
l l
n p
ht tp
Ġin t
mb er
> \
co re
str u
qu ery
S t
n d
lo at
Ġ+ =
N ame
ting s
Ġ url
tribu te
Ġ\" \\
i tem
' :\
ate d
'} ),\
] ,\
Ġc heck
t self
D E
Ġh e
00 00
Ġ[ '
Ġco mp
w e
res ult
Ġ line
1 5
u me
S et
Ġ all
C T
Ġ# #
si ble
2 5
a pe
ne ction
pla y
Ġs ub
se nt
Ġcon st
m d
Ġ In
re g
s ing
' t
l an
ĠI f
ar ch
Ġsho uld
te g
Ġ /
i v
ul ti
u de
Ġ string
ctor y
g n
! =
ig ht
Ġ X
qui red
Ġa dd
t le
on g
re ct
Ġ z
] .
as h
. \"\"\"\
Ġu se
c s
er s
fi x
ar get
param s
o o
n ot
A dd
ra tion
n ew
le an
Ġd jango
s pa
ma il
l u
Ġc ur
1 6
) )
in e
( ))\
Ġ !=
A N
Ġ error
f t
') :
a uth
Ġn ode
vi r
S E
' ),
le d
in ter
r un
ise s
par se
pe ci
no de
pla ce
uti ls
ĠT his
Ġ models
or y
Ġa pp
ta ble
ut o
p r
Ġ ser
a x
P ro
Ġn e
g ra
temp late
ma p
e qual
' s
a p
mp ty
Ġ model
st atus
ĠT est
Ġf a
Ġres ponse
le ct
ti tle
Ġs h
and om
ti f
object s
o und
G et
Ġp y
Ġcon fig
9 9
re am
j ect
L o
'] )\
Ġis instance
me ssage
res ponse
r ans
( (
mo ve
ĠĠĠĠĠĠĠĠĠĠĠĠĠĠĠĠ ĠĠĠĠĠĠĠĠĠĠĠ
M E
1 1
t s
re f
fi l
0 2
and ler
late d
I C
Ġ- >
Ġc reate
Ġme thod
co urse
` `
o bj
A t
( ),
i te
all y
S e
Ġar gs
st a
me mber
c lo
st ri
T ime
Ġb u
w w
Ġh ave
Ġ &
re turn
con tent
arn ing
Ġd ate
in put
ro w
i x
Ch ar
i es
le te
p v
U T
Ġi tem
Ġi d
per ty
Ġd is
Ġ version
ti al
Ġ j
si gn
sp lit
a k
r c
Ġst ate
m ark
Ġo ther
) :
p ri
' ):\
U R
() .
Ġ` `
i ch
m an
co mmand
a v
ht ml
Ġr un
Ġs o
ti fi
Ġout put
t tp
Ġ V
'] ,
2 00
r ame
Ġre g
pa ck
b e
ch ange
t ro
la y
m is
ms g
id get
y n
R a
lin es
a ch
' .
Ġb ase
t d
Ġme ssage
c lient
[ :
gg er
t in
un i
u al
c re
Ġr ange
Value Error
F ile
M ode
Ġex pected
Ġ .
Ġb o
n el
ter n
teg er
ĠE x
et a
Ġ\\ \
um n
Ġma x
o st
Ġn umber
a y
C ase
Ġdi ct
m it
z er
3 0
Ġ} \
p s
v o
u se
Ġu sed
S S
Ġco de
tic le
3 4
Ġpar am
peci fi
pa ge
R es
s g
L ist
T E
I ON
g ht
Ġ li
po int
Ġw or
s ys
b s
\" )
ro ot
tr ing
up le
1 9
fa ce
ari able
' '
l at
pro cess
Ġin dex
A P
Ġ' ,
o ption
di s
} )\
net work
Ġin stance
c all
F a
ĠĠĠĠĠĠĠĠ Ġ
Ġar ray
Ġb ut
lan k
' ))\
Ġs u
mb da
fe ren
u mp
spa ce
Ġo pen
u res
2 2
fo o
3 6
e p
Char Field
; \":
R O
or ted
Ġ text
T ER
me n
I G
fa il
D ata
at ri
n er
D i
Ġ ge
de nt
Ġ end
Ġp er
out put
Ġst art
fil ter
st d
con text
n um
Ġc a
P ar
A C
ĠC on
ta g
vi de
Ġo ption
Ġsup er
f ind
Add ress
le ction
Ġ' \
Ra ises
T o
s o
ri d
Ġvalue s
Ġ ver
Ġform at
si tion
name s
ome try
p ass
\" :\
e e
Ġlo g
Ġle vel
I d
Ġde scription
C O
2 0
ame ters
Ġ one
Ġ 6
Ġd ist
Ġan y
4 0
b lock
093 0
P o
Ġwh ich
pe c
assert Raises
c ate
el p
( *
di t
od y
Ġcon tent
co ding
lo t
i ty
wa re
Ġwh en
Ġarg ument
he ader
f unc
ĠRe turn
do c
me ta
or g
c ri
la ble
sion s
clo se
v ar
file name
Ġ ..
ir st
es s
Ġco mmand
s u
stru ctor
a ction
m atch
IN G
B ase
bu g
c cess
value s
Ġcon text
6 7
Ġon ly
atri x
a pi
at ure
b in
Ġin put
it s
tr ans
Ġm atch
U n
Ġo bj
set s
Ġ 8
00 0
pt s
tribu tes
ock et
ad min
Mode l
lu gin
er r
m ary
l d
po s
i mport
re lated
or der
Ġ valid
Ġ |
Ġcur rent
on ent
lo b
Ġ1 0
Test Case
ol s
e vent
sh ape
Ġfile name
con st
] [
i ter
Ġ( \
st ore
to ken
Ġre quired
i ali
ca che
cl ude
set tings
ample s
3 5
D O
Ġ' %
1 7
is ter
op en
iv en
po st
Ġc al
Ġ{ }\
( {
an y
la tion
Ġ up
S er
id th
a in
U ser
type s
I pv
t on
Ġco urse
Ġm ark
Ġin ter
1 4
Ġt ra
Ġch ange
e ar
qu en
p k
L O
= [
A B
Ġp ack
ff er
E n
C H
N D
T ext
ag er
H T
con n
ub lic
8 8
################ ################
a re
Ġdo es
al s
Ġa d
do w
S i
Ġsi ze
date time
o ptions
Ġt rans
en se
le s
in dow
Ġs pecifi
a i
i z
Ġa x
ĠA n
Ġre ad
Ġm sg
] )
U L
ĠĠĠĠĠĠĠĠ ĠĠĠĠĠ
Ġe vent
b ar
ment s
f loat
Ġ( \"
ĠĠĠĠĠĠĠĠ ĠĠ
1 3
ation s
h as
ch ar
M P
it test
he re
Ġm ust
ra w
ch ild
\" .
o w
assert True
Ġh ttp
Ġm in
if y
Ġ Q
read y
Ġun i
or s
A G
b lank
Ġy ou
Ġmo ck
n ull
ist s
A r
D o
Ġ query
fi r
re ctory
Ġ} ,\
P E
ti es
Ġf irst
co py
F orm
ile d
======== ========
ĠC o
Ġg ener
Ġdo c
ĠĠĠĠĠĠĠĠ ĠĠĠĠ
Ġg roup
ses sion
n if
\" ),\
Ġ[ \
Ġ --
6 2
Ġb ack
Ġcon tain
3 3
ĠD e
EN T
- \
pro perty
Ġ' \\
s ource
lo cation
Ġto ken
M L
q l
e mpty
I O
Ġ ValueError
key s
N o
vir on
r ange
ore ign
i mage
feren ce
ex ec
Ġd b
Ġc all
6 5
'] ,\
ad ata
i e
ut f
s te
k ip
o g
I L
Ġg iven
T P
td c
fo re
x ml
ri ght
N ot
A D
gg ing
F tdc
in i
host Ftdc
s ave
m y
Ġ{ }
A S
S tring
Ġhe ader
st all
t arget
l t
t ask
U p
w er
de lete
and le
1 8
tro l
P O
un k
file s
ump y
AT E
r an
on t
Ġfield s
co mm
py thon
Ġo ptions
Ġ q
ol d
N A
T he
Ġpa rent
cur rent
Ġ 7
add ress
---------------- ----------------
H O
ur ation
yn c
f unction
Ġ label
At tribute
Ġge ometry
Ġfile s
item s
o us
Ġex p
c y
cor d
ver se
1 00
' \\
ch o
Ġ J
ex p
Ġ mode
v ed
do wn
2 4
T ag
th e
i ce
Ġdate time
ol y
as ses
s with
f ter
Ġro ot
i ck
ma tion
ho w
s up
5 0
re ak
= {
c ls
Ġ\" \
2 01
CT hostFtdc
\" >
bo x
Ġ kwargs
ti ty
re place
in al
Ġf loat
Ġat tr
r ate
x x
. ,
bo se
Ġor der
oreign Key
; \
pa rent
092 8
el l
ser ver
o ther
F I
Ġy ield
scri pt
re q
p rint
ic ense
Ġne ed
no w
Ġa ction
tin ue
Ġ[ \"
Ġal ready
Ġo ver
Ġset tings
o te
ra ct
( _
pe d
Ġ' '
Ġ update
an nel
pass word
c md
si te
st ream
o f
Ġc or
se arch
le vel
con d
ta il
Ġch ar
at ures
Ġma ke
de scription
ĠReturn s
Ġ" #
C l
u id
V i
0 3
i on
stri p
pro ject
Ġh ost
ET TER
s y
D I
tri b
par ticle
ĠL ETTER
Ġcon nection
Ġs ource
7 8
a st
Ġ json
ig ration
Ġwh ile
\" ]\
Ġwor k
P a
t def
Ġs y
la st
di a
D ate
g h
O bject
Ġu sing
ex ten
t k
u int
at ing
Ex ception
[ -
pre sent
di tion
s or
Ġco py
con f
M o
cri pt
n CThostFtdc
t adata
vide o
e mail
Ġi mage
) ))\
s um
ĠL icense
Ġd if
Ġ Y
Ġe lement
bu ild
comp ile
Ġpar ser
m on
Ġb lock
Con fig
Ġa uth
b i
con nection
Ġh elp
m i
ot al
Ġd type
de bug
Ġc md
i ces
en v
ch ed
7 5
le ase
04 3
ig h
pe ct
y ear
st ack
F oreignKey
Ġcon tinue
ww w
ex ception
at s
ok up
id s
ver t
) .\
Ġp age
x c
vir t
Ġp ri
Ġ ]\
\\ \
a ke
w o
lo cal
Ġe ach
Ġ val
Ġc lient
N ode
r andom
I s
ut ton
Ġs ign
09 15
Ġla mbda
U S
u le
f ul
6 6
C heck
pp ing
Ġmo re
Ġt able
Ġparam s
E S
0 5
Ġt arget
s a
ĠĠĠĠĠĠĠĠĠĠĠĠĠĠĠĠ ĠĠĠĠĠĠĠĠĠĠĠĠĠĠĠ
Ġp art
ex pected
n umber
Ġt uple
x y
user name
di rect
Re turn
St ate
Ġresult s
In teger
vo id
o ff
Ġc ase
Ġla st
u age
pp er
Ġse s
f ault
ĠW e
') .
** **
m al
ang uage
Ġ'' '\
4 2
lic ation
Ġr andom
I tem
Di ct
I P
ĠĠĠĠĠĠĠĠĠĠĠĠĠĠĠĠ Ġ
O T
re move
ut ure
Ġw as
f la
Ġ 9
Ġ view
_ .
us h
5 1
th ing
093 8
ame ter
ol der
g ener
Ġs ome
C ON
Ġpo int
Ġt ag
e lement
Ġst atus
ĠĠĠĠĠĠĠĠ ĠĠĠĠĠĠ
l ta
c c
Val id
Ġal low
Ġ link
lib r
qui re
Ġf ound
Ġ\" %
', '
con structor
fir st
) "
ess age
mo ck
c an
pre fix
B o
Ġma y
Ġex tra
h andler
li ty
Ġin to
Ġ template
Ġc ho
as si
to p
2 8
or d
c en
m t
ali ze
Ġ' .
( ?
Ġmark er
u i
K E
se lect
Ġch ild
ai lable
Ġf e
Ġs p
c er
Ġses sion
Ġf il
Ġ\" \",\
bo ok
lob al
b ody
Ġth en
d f
res sion
ulti p
po p
M A
Ġof f
c le
f rame
res h
no wn
ab s
stru ct
lat form
NA ME
Ġex ist
Ġax is
i ve
able d
Q u
Ġo per
P ER
n g
M e
Ġg ra
quen ce
Ġro w
ate s
Ġb reak
ser vice
3 7
col or
in ed
el per
ro und
ĠG ener
6 8
ge x
ex it
ro u
le ss
5 9
Ġex ception
Ġ- *
y le
) ):\
Ġpass word
C E
a tive
Ġs ame
for mation
change d
2 9
oo lean
Ġlo ad
on ly
Ġpro cess
arg ument
'] .
Ġ te
T Y
4 8
6 0
ust om
du ct
P I
\" ))\
Ġse e
] :\
ĠĠĠĠĠĠĠĠĠĠĠĠĠĠĠĠĠĠĠĠĠĠĠĠ Ġ
. \"\
ĠP ar
se ction
> <
conn ect
Ġ> =
d type
Ġp os
ĠĠĠĠĠĠĠĠĠĠĠĠĠĠĠĠ ĠĠĠĠĠ
mo st
par ser
c r
m ask
ol ume
ĠAn sible
Ġn on
Vi ew
Ġo p
vi der
) ),\
( -
w h
C ol
B u
E vent
all back
Ġbo ol
u tion
Ġsho w
UR L
Ġde vice
n orm
v en
e f
mo te
Ġpack age
In fo
u d
\" ),
n T
Ġ vi
5 5
ma ke
a uto
en code
Ġ temp
'] ['
h ash
Ġlo gging
re quired
o per
to col
Ġv ariable
che ma
c li
> </
ri bu
ra p
3 9
ĠĠĠĠĠĠĠĠĠĠĠĠĠĠĠĠ ĠĠĠĠ
P tr
Ġn umpy
sta tic
Ġde st
low er
w idth
Ġ err
ĠU ser
Ġ' /
2 7
ĠEx ception
ca le
'} )\
comp onent
Ġ --------
p lot
Ġspecifi ed
a ti
ter min
{ }
AL L
da y
T R
Ġn ext
0 7
s how
se nd
z ed
Ġf ind
E D
di st
t return
de vice
\"\" \"
In dex
Ġre n
arning s
r f
mis sion
) ]\
Ġreturn ed
o ver
Ġpar se
ri de
Ġname s
0 8
que ue
Ġco unt
M essage
Ġlo gger
Ġsup port
Ġf in
at tern
virt ual
} ,\
(' /
\" ):\
4 4
') ])\
Ġser ver
s rc
Ġdi rectory
si t
st al
Ġm an
set up
: `
Ġin fo
5 3
std out
a le
or age
di v
Ġn um
uni que
Ġma in
ator s
gin e
N U
Ġdi r
our ces
bo ol
Ġa b
p atch
Ġex ec
Ġcon n
Ġv o
t rue
Ġa v
pri mary
dis play
n ing
Ġo ld
k i
start swith
pack age
con trib
g en
Ġ' -
ub lish
Ġp ython
_ ,
g or
O r
nt ry
Res ponse
r t
Ġget attr
fi ed
Ġ K
E X
F F
tic al
B y
we b
\\ \\
s pec
Ġthe re
men ted
s amples
si de
p orted
e mp
L I
Re quest
ĠT ype
V er
c lean
Con tent
h er
ĠS ee
e k
H e
T ra
ĠH T
col umn
c f
en viron
Ġhas attr
Ġn orm
ĠC heck
n ext
uti l
U N
b a
Ġor ig
Ġth an
2 3
F A
wa it
ĠP ro
OR M
Ġin i
Cl ass
ex ists
u ct
fi t
Ġat tribute
ction ary
lo c
and ard
no re
x e
Ġen try
Ġout file
Ġoption al
Ġst d
M eta
8 9
ude nt
U P
test s
] ))\
f er
header s
f in
ĠA r
der r
x a
g ment
as ter
et ch
E lement
ble m
la mbda
Ġca che
Integer Field
Ġlo cal
us ter
lic y
F T
Ġn et
Ġp ort
Ġbu ild
out file
i o
-- \
Ġ lines
en try
re pr
A l
Ġf unc
t ree
ra pper
v ate
Co unt
li ke
& #
ĠĠĠĠĠĠĠĠĠĠĠĠĠĠĠĠĠĠĠĠĠĠĠĠ ĠĠĠĠ
ĠS t
ac tive
ĠĠĠĠĠĠĠĠĠĠĠĠĠĠĠĠ ĠĠĠĠĠĠ
Ġuni code
Ġf la
Ġs ample
ro ll
le cted
Ġn ull
UL T
Ġth read
H andler
d le
Ġ' <
jo b
un ittest
ci mal
sys tem
par t
ax is
z one
cl u
.. .
AT IN
to ols
T O
mo d
p lugin
Ġw here
Ġtest s
7 7
x b
X X
ph a
ok ie
Ġen coding
um ns
Ġargument s
Ġi mple
'} ,\
http s
t xt
al og
co pe
KE Y
t mp
ing le
09 1
fe atures
result s
Ġ< =
200 1
Pa th
ma th
'] :\
: %
Ġa fter
ĠL ATIN
w ar
libr ary
error s
Ġobject s
ces sed
ultip le
lo gin
de lta
2 1
) [
id dle
ab c
({ '
Ġa uto
Ġerror s
n a
sta mp
_ (
( ),\
Ġre t
Ġco m
di ff
in stall
group s
A uto
x f
Ġ2 00
093 9
Mo dule
Ġco mm
Ġfa il
Ġsh ape
f s
Ġ.. .
Ġi mp
Ġname space
ren der
Ġ qu
Ġ\" '
den tifi
Ġdis play
tifi cate
ul ar
our se
n on
tern al
S I
ith er
9 5
IN E
te x
con tain
G roup
b it
'' '\
V ER
P ack
cl asses
by tes
le ft
0 6
ĠG et
lay er
Ġreg ister
w idget
Ġset up
as ic
Ġ title
reg ister
Ġe mpty
de st
f uture
do main
Ġby tes
id x
assertEqual s
N s
R L
C allback
si tive
ĠN ot
st op
ext ra
Ġhe re
Fa ctory
Ġu ti
is h
M O
n an
l ing
Ġac cess
ex ample
Ġ{ \"
con ds
Ġpo st
Ġun der
4 5
s kip
v es
N et
Ġy our
st ract
vi sion
po sition
3 8
Si ze
= ['
Ġpar ameters
uni code
se n
du mp
ĠS et
mark er
tra in
de code
exec ute
In ter
Ġ ),\
Ġreturn s
Ġhas h
Ġde l
Ġbe fore
Ġco mple
Ġc lo
Ġl ong
r s
le ctor
f y
time out
De fault
P er
lo ader
ac cess
= (
ĠC reate
Ġs ocket
Ġvo id
ĠĠĠĠĠĠĠĠĠĠĠĠĠĠĠĠ ĠĠĠĠĠĠĠĠĠĠĠĠĠĠĠĠĠĠĠ
Ġs a
Ġd on
ĠD ata
e a
u ble
f low
in k
092 4
A c
Ġver bose
ri ver
p c
w ise
Ġf alse
ca st
s ort
ĠI D
AT A
f d
vi ces
Ġun ittest
ct s
gra ph
pa ce
Ġdist ribu
g ory
rou gh
R A
a red
Q L
M an
) /
k er
w it
~ ~
sent ry
lu g
mis sions
tail s
Ġst a
co un
m ulti
ra ises
AT ER
Date Time
Ġal so
di ces
Ġme ta
ver y
A ction
te l
C reate
u ff
z ip
ĠC h
ca use
re l
M any
we ight
M S
Ġst ream
ĠF or
p l
Ġdata base
Ġre move
im um
in valid
iddle ware
Ġpre fix
P re
Ġres ource
man ager
Ġheader s
de red
4 9
d ot
Ġpro ject
v m
ta gs
gra m
M M
id den
igration s
Ġt a
b r
). __
re en
ĠP ublic
= %
ol ve
ed ge
I S
ol ute
me tadata
Ġwith out
( ['
Ġw rite
Ġsys tem
Ġa ct
ex c
Ġlen gth
Ġz ip
Ġre lated
me tri
Ġre f
auth or
as on
In put
Ġt rue
Ġe mail
8 0
b b
Ġex ten
. \")\
Ġ' --
W ATER
s core
Ġse arch
E L
Ġa g
; &#
a ct
li ed
c ul
en coding
ĠĠĠĠĠĠĠĠĠĠĠĠĠĠĠĠĠĠĠĠĠĠĠĠ ĠĠ
W idget
g ame
HO ST
Ġb in
res ource
t uple
f ull
/ %
5 6
Ġb ody
ĠA t
A s
Ġt wo
Ch ild
Ġw idget
Co mp
c ss
ant s
o pts
w d
Ġb et
Ġbe en
year ly
N O
j s
or ig
th read
end s
Ġcol umn
a it
w i
in ce
L ND
mb ol
19 51
Ġ Z
HT TP
Ġcor rect
D B
() "
TE ST
ĠGener al
te red
ol ution
an not
ĠL o
Ġit s
in sert
I mple
t x
Q U
Ġ' '\
ĠĠĠĠĠĠĠĠĠĠĠĠĠĠĠĠĠĠĠĠĠĠĠĠ ĠĠĠĠĠĠ
c p
h i
Ġ' __
point s
ĠI mport
O L
Ġ' _
Ġlo cation
ab el
c ry
\" }
Ġadd ress
ra int
ri es
Re f
Test s
Ġav ailable
] +
ĠG NU
Ġi g
x d
re al
m atrix
S C
a ded
ase s
Ġe ither
A uth
al low
Ġdoes n
off set
Ġfil ter
Ġs ave
Ġoff set
at ter
ex port
Par ser
Ġx ml
exten d
TY PE
Ġm atrix
as sed
De vice
Type Error
Ġcol or
Ġinter face
\" ],
Ġ_ (\"
Ġtime out
5 7
Ġ1 00
Ġser vice
arg v
ĠA dd
ro p
ut able
T h
Ġre q
component s
es ca
v ariable
Ġi m
iali ze
me r
ft ware
tro ls
Ġren der
O ut
ot o
s ample
ĠS tring
he ight
g rid
s ql
Ġ' ''
ĠI t
bo ard
\"] ,\
Auto Field
Re g
2 6
Ġ video
Ġcreate d
Ġstr uct
ste ad
Ġ utf
Ġ# \
O S
Ġwe b
Ġc er
us r
F rom
Ġin clude
ch annel
A n
Ġra w
message s
Ġm ask
\"] .
assi fi
ke ep
Ġchange d
Ġs ure
ĠĠĠĠĠĠĠĠĠĠĠĠĠĠĠĠĠĠĠĠĠĠĠĠ ĠĠĠĠĠ
z z
Ġen v
method s
Ġno w
FA ULT
Ġsu ccess
assert False
Si mple
f n
c ent
Ġ Key
ĠS M
per ties
Ġattr s
Ġcho ices
Ġi ter
Ġmo di
Ġal i
[: ,
Ġa ss
Ġf ull
ĠU RL
Pack et
ĠS e
var s
w in
li mit
FI LE
com ment
Ġchar ac
a u
Er r
Ġpy test
P AT
ix in
lo gger
Type Id
B oolean
ic al
ĠN o
Ġco ding
t z
O K
T rans
dentifi er
F or
s q
Ġj ust
S ON
li ce
Ġst ack
Qu ery
(\" %
DateTime Field
C K
R un
T H
_ )\
AT ION
w ard
g le
\" ).
D es
m ory
ve ctor
Ġbe cause
Ġpar ameter
wa ys
pro file
Res ult
fla gs
n k
Ġw arnings
te p
de v
Ġi pv
S ub
ĠI N
Ġli mit
Ġan sible
Ġh andle
iz ation
% (
b l
en tic
Ġw ant
C lient
Ġdi ctionary
ur i
') ],
\" ])\
Ġa bs
im ator
s v
vi ous
er o
Ġkey s
call back
Ġ right
] ['
F rame
ali as
Ġc re
si s
) ),
attr s
pro cessed
in ation
Ġs cript
bi lity
gor ith
Ġ' {
py test
we en
t ml
ĠB ase
Ġthe y
il tin
sa fe
N umber
h a
Ġ late
re p
qui res
Ġitem s
Ġdo wn
Ġfa iled
. *
. ')\
S u
Ġs ingle
([ [
Ġde p
Ġm on
for ce
Ġfor ce
Ġg o
ĠCon fig
ĠW IT
ĠType Error
0000 0000
At tributes
U M
re po
Ġcal led
Ġ1 2
h andle
7 9
ce ll
ĠHT TP
i ze
Ġset Up
Ġ-------- --\
Ġt mp
Ġsi x
Po int
Do wn
6 3
AR T
H E
l ong
n ap
Ġp k
user s
at tributes
Ġin stead
Co mmand
assert Is
inter face
n PER
ĠSM ALL
> \\
U B
A d
ol ver
i fi
m at
lic it
Ġ& ',
u red
in f
7 0
L ine
Ġ ----
P WATER
Ġ2 0
nPER LND
5 2
d t
G ET
ck et
Ġuser name
Ġma p
L ay
ste p
Ġtype s
ge d
cle ar
' \",
ok en
tel se
Ġsta tic
6 9
Ġm y
ĠD o
emp late
b utton
Ġp ick
ran ch
e ded
i al
Ġthe m
Ġpo sition
Bo x
P y
Valid ation
ri c
Ġt ree
child ren
Ġ\" .
094 1
de p
( __
F ORM
s ome
Ġre al
g t
Ġv ar
Ġdoc ument
ge st
_ ='
sc ale
al y
Check er
Ġpro perty
con trols
CON F
ĠPar ameters
3 1
re r
Ġ* \
Ġ join
ĠImport Error
f ra
Ġin formation
o ci
Ġ ter
te ra
Imple mented
am l
s ure
Boolean Field
Ġp assed
Ġli ke
vi ty
in clude
Ġ lib
093 5
Ġp la
ex pr
Ġh andler
ĠH ttp
25 5
b ot
={ '
Ġre verse
Ġs rc
Ġex ample
si ty
ver bose
Ġdo main
ic s
ver age
A pp
(' -
dir s
w indow
ur ls
T his
bu ffer
Ġ ],\
04 4
T I
} ,
ĠĠĠĠĠĠĠĠĠĠĠĠĠĠĠĠĠĠĠĠĠĠĠĠĠĠĠĠĠĠĠĠ Ġ
f l
-- -\
Ġg lobal
wit ch
() [
te am
Ġde lete
Ġt ri
V AL
f older
O P
fe rent
( **
st derr
Ġs orted
D is
wn er
sh ip
Ġsi mple
g o
Ġ[ ])\
po ol
end ing
pre c
r and
ce iv
Ġres p
class method
Ġse cond
Ġre cord
Ġre present
tp rint
comm it
stal led
W arning
m all
z y
Ġto p
le x
Ġh o
Ġa pi
Ġmessage s
Ġo pts
L en
ce back
he ther
AC K
c d
st ats
if t
h en
ci sion
r on
n b
ns or
ex cept
Ġ% (
W ith
re t
He ader
P RO
] ]
s ted
i str
se q
Ġme tadata
Ġ ::
093 2
iali zer
Ġexist ing
du ce
u uid
Man ager
ti l
si mple
Ġ RE
ER R
Ġp lt
P age
L e
ume rate
gorith m
re gex
9 0
S tr
Ġt otal
ist ration
tif y
ini tion
e dit
de sc
Ġex c
sh ot
al most
Ġe st
Ġimple ment
t for
o pt
i den
sign ed
st yle
re c
le m
OR T
================ ================
Ġs pec
Ġ1 6
C a
u sed
val u
cho ice
s ue
Ġd t
i mp
con trol
add r
assert In
ĠC ol
IT AL
gra de
Ġad min
di o
PAT H
5 4
Ġ< /
Ġw idth
dition al
e ff
Ġs k
wor ds
Ġat tributes
D C
c at
t otal
Ġmethod s
AB LE
D ATA
ĠT O
ile r
ĠC AP
IG N
Ġdif ferent
E V
p ublic
sup port
Ġc lean
C A
Ġ-* -
Ġw ait
im g
k nown
dir name
Con tain
ĠCAP ITAL
S to
el lo
Ġdef ined
Ġin valid
me dia
G ener
Ġp oly
le t
nt ax
Or der
(' \\
IT Y
Ġse lect
en ter
Ġ\" ,
N E
v ari
he ad
Ġs um
Con text
In valid
Ġ )
Ġgener ate
l anguage
M ock
Ġm is
Ġcol lection
cre en
- %
form s
o b
Ġch unk
**** ****
ys tem
tifi cation
Ġs ql
Ġen umerate
Ġ-* -\
un it
US ER
b atch
di stri
Ġm ulti
Ġfunction s
C ur
P A
di c
Ġmo d
g round
A A
ti vity
play er
Ġ"# !
Ġgra ph
S ta
M ixin
lo op
cho ices
t f
Ġh tml
ali zed
Ġla y
PO ST
ent ries
Ġse ction
Ġpre sent
Ġse nd
B U
DI R
G e
s l
P L
Ġin teger
Ġde tails
w s
vi ded
Ġ mp
p ol
Ġma th
? \
ĠNot Implemented
Ġu s
Ser vice
module s
ĠY ou
) *
B utton
a f
me an
Ġp lugin
00 01
ĠA s
us age
5 8
. %
\" \\
M ET
o se
Ġconfig uration
Ġuni que
Ġe ven
Ġbet ween
ceiv ed
7 4
Ġsub process
f etch
sh ort
esca pe
pen den
I nt
create d
ta b
mo ved
label s
Ġme mber
IN T
E ST
Ġ[ [
ci i
34 5
wa y
Ġcommand s
ff ff
z ation
pro duct
istr y
: :\
di m
ist ory
fa ctory
L abel
st udent
\"} ),\
Validation Error
ĠP er
F unction
mo unt
down load
Ġorig inal
AG E
cur ity
` .\
g p
'] [
il y
Ġf rame
Ġid x
par ameters
bin ary
re cord
g it
g ate
ect or
np rint
ĠE n
Ġstring s
ĠA PI
O n
s k
Ġurl lib
Ġ\" /
mp y
Ġcom ment
pa ir
L INE
in s
Ġp h
T able
g y
Ġe q
Ġ ti
Ġlo okup
Ġini tial
\", \"
S H
Ġ\" \"\
Ġp latform
Ġcomp onent
ct ype
__ )\
Me thod
AN D
Ver sion
] ),
cor ds
Ġ\" <
Ġcon trol
ĠG e
p latform
Ġm igrations
i od
Ġ} )\
su ccess
Bu ffer
Ġs kip
ad ded
ari es
zer o
] ])\
Con nection
sy m
A ll
, '
le arn
DE FAULT
Ġre po
ĠN ame
Ġu id
ĠA ND
ĠN ote
) ])\
h elp
ck er
ĠAt tribute
comm on
C I
F O
pk g
: ]\
in dent
p oly
Ġex ists
ĠC ourse
V E
ci es
che me
ing s
si x
Ġab out
h s
en gine
d at
lo okup
re lease
Ġst yle
ub e
ĠV er
g ress
ti tion
am ma
ord in
T ree
ra ph
W OR
w arn
le ted
Ġw ri
link s
` \
__ ,
co der
ho ok
O ption
ro le
S ource
In stance
Ġen code
Ġ"#! /
qu ote
E nd
ĠP o
ĠR un
exception s
S ET
distri bu
n one
c ase
Ġst op
Ar ray
ta ch
pro xy
Ġfin ally
load s
Ġin stall
name space
ĠS o
Ġpack et
ublish ed
Ġc li
Ġ\" -
Ġ1 4
h elper
igh b
C ode
at tribute
Ġb lank
war ds
ue ue
Ġd f
ac count
Ġ et
le ep
Ġen viron
S A
Ġ2 01
T oken
AN G
peci al
u ally
R I
si g
Ġex t
ĠU n
bu f
S ER
app lication
S O
Ġsup ported
ra ys
b stract
g r
Ġ keep
se c
] *
Ġre p
po licy
s ocket
St art
F N
re mote
Ġcon f
Un less
Ġth rough
Ġex port
S h
Ġpro vided
M ulti
cor rect
9 4
n except
st at
ĠCo mp
ex ist
Ġse quence
Ġ} }
doc ument
HT ML
Ġsign al
Ġcall back
b ad
me di
Ġle ft
Ġtra in
prec ated
ge ther
man y
al pha
__ \
do uble
78 01
I ter
es sion
Ġu int
EN D
Ġpoint s
n n
le ar
me d
9 8
( \\
p tr
Text Field
' +
Ġthe se
ci ty
ag g
h ex
p attern
ĠD jango
se p
F L
Ġact ual
C C
Ġwe ight
Ġvalid ate
cen ter
Ġ ):\
ERR OR
Ġ> ',
m k
al t
end swith
si ve
f p
Ġback end
f g
) \"
re verse
Ġcontain s
g ument
cur sor
Ġbu ffer
7 6
as cii
B lock
i b
pro vider
e gg
la tive
oo gle
w rap
R o
ĠS er
xt ure
################################ ################################
cf g
O f
O ne
S ocket
Ġcl asses
valid ate
I f
Ġad ded
an k
') ),\
ĠO r
test ing
'] \"}),\
ĠD O
' re
9 1
ho me
IG HT
Ġstd out
Ġsp lit
L IC
n c
Ġs tep
ĠF ile
w arning
Ġ3 0
' ^
Ġre place
Ġst ore
il der
ix ed
f fix
se cond
dump s
feren ces
Ġag ain
': '
Ser ver
Inter face
as ync
ĠĠĠĠĠĠĠĠĠĠĠĠĠĠĠĠĠĠĠĠĠĠĠĠĠĠĠĠĠĠĠĠ ĠĠ
Ġal ong
Ġta gs
ĠTO DO
Ġlate r
n umpy
v olume
Ġpa ir
Ġdis able
F ound
Ġ\" {
Ġst andard
s pe
Ġh and
Ġm ultiple
path s
Ġby te
> ,
C S
Ġal ways
(' .
\\ .
Ġ1 5
view s
9 7
u ter
is o
ho uld
ic ro
Ġig nore
8 4
Ġcon vert
nap shot
Ġs ince
Ġ[ (
ĠNotImplemented Error
di rectory
mo di
col umns
zer os
S ign
Ġre l
ĠKey Error
ĠM e
6 1
W indow
reg ate
a a
av ed
LO G
Type s
sc reen
re quire
'} \
Ad min
th is
C L
node s
un ded
Ġf p
Ġ\" __
ur al
fa ctor
con vert
s ume
ar r
Ġse n
` ,
i command
I mage
p id
ĠU ni
sp an
ĠR es
on s
re ction
Ġ( (
pi ck
O O
Ġt z
ta ct
St atus
her it
Ġre ference
094 7
Ġp d
Ġcur sor
Ġuti ls
r ule
te ration
ed s
8 5
Ġ :\
N S
AP I
s ten
ĠQ t
s lug
ma g
to m
ĠAttribute Error
trans form
time stamp
s parse
Ġo ur
__ ':\
ĠO n
W e
t v
oper ator
Sto re
I F
y load
Iter ator
a th
Ġf oo
Ġl anguage
over ride
) \",
xx xx
\": \"
fi ci
In dent
ION S
n f
ĠC ON
Ġ $
00 1
cli ck
ti alize
Ġw hether
u tes
st orage
Ġde bug
ĠD E
ĠĠĠĠĠĠĠĠĠĠĠĠĠĠĠĠĠĠĠĠĠĠĠĠĠĠĠĠĠĠĠĠ ĠĠĠĠĠĠĠ
inter val
c v
ser ies
row ser
C R
Ġsy mpy
Ġbo th
cl uster
ĠT o
Ġv ari
Ġcan not
g ative
Ġ lin
or ter
ate gory
ĠT ime
il s
Ġdata set
De le
[: -
Ġs pa
ĠD i
A ccess
ance l
FT DC
I R
Ġs ort
Ġpro blem
Ġspecifi c
ĠHttp Response
8 7
Ġp i
Ġp atch
app s
ĠM o
Ġ job
Ġwh at
Ch ange
Ġw indow
Ġco un
res p
by te
event s
iter al
Ġoper ation
nT HOST
ini tial
ext ract
Ġ- =
8 6
:\ \
cre t
Ġcontain ing
Ġc ustom
fla g
] ]\
Ġch annel
P S
y p
Ġex pr
pi p
U RE
-------------------------------- --------------------------------
re set
Ġun it
) ).
H ash
re port
si d
Ġabs olute
Ġin it
Ġelement s
b c
e v
re st
op s
bo und
in es
st ant
. \"
el ine
ass word
Ġdefault s
Ġrequest s
Ġcon ver
ĠP y
Out put
) +
AN T
Ġc v
ag ent
-- -
sign al
Ġlabel s
Net Device
u x
Ġfla g
] ),\
se conds
command s
Return s
Ġf ree
ro ss
Ġthe ir
Ġfe ature
Ġin clu
di stance
Ġbe ing
O pen
Re ad
Ġuse ful
cre ment
Ġre pr
Q ueue
a fter
\" >\
Ġ1 1
data base
Ġ library
r ong
pro blem
sit ory
L iteral
S QL
Ġo b
(' %
Ġapp ro
(\" \\
mb ed
Ġd a
Ġac count
ck s
ĠA uth
Ġ3 2
Ġclo se
t b
' d
7 2
F e
f c
co me
09 17
ĠM ake
Ġhttp s
Z E
re direct
col lection
f ont
Ġv olume
Ġg en
Ġcol umns
ume ric
Ġre quire
'] \",
St ream
mon th
Ġm at
lo aded
b asic
Ġo pt
roll ment
ma pping
Ġvariable s
E ntry
ĠA pp
ang le
cal led
ti o
il ter
I mp
Ġp ip
Ġin teg
lo y
r b
Ġ" \"\"\"\
Ġar ch
Ġcomm on
v s
sup er
S P
o uld
res pon
Ġme dia
B A
ro ute
ĠL ist
Ġrun ning
ĠF ield
quest ion
LE CT
ĠO ption
d river
li te
Ġfe atures
Ġpos sible
Ġsk learn
G ui
AC E
p ng
Ġre direct
Ġt r
li m
Ġfla gs
contain er
99 99
Ġpath s
D ir
ati ble
c ing
Ġo c
up per
Ġshow Indent
assifi er
Ġ% }
ched u
pro p
Con trol
Ġin dent
w ri
ĠU se
h older
Ġlo ok
ING LE
ti tem
Ġevent s
l ass
Ġre mote
one s
Ġto o
M I
Ġdistribu ted
P ORT
Ġs ig
Ġpro vide
in dices
Ġma pping
Ġz ero
Lo g
e q
Ġ kw
Ġe qual
per missions
} '.
Ġre port
ĠS E
I E
U ni
ĠO S
ĠJ SON
O per
ar ange
row s
pi x
Len gth
s w
action s
MP LE
A nd
To Many
Ġpla ce
Ġe very
c ustom
Ġkey word
Lo gger
Ġnet work
w here
Ġst ri
po se
.. /
4 7
host name
Form at
D S
s chema
Ġfor ms
IT E
Ġdistribu tion
Ġter ms
u ted
Ġlo gin
spa ces
S y
UL L
Ġbase d
Ġmodi fy
Ġu ses
Ġcharac ters
Ġin stalled
Ġwor d
ser tion
M atrix
Do c
Ġq s
Ġauth or
C lo
un ds
ĠM ock
j e
ch ain
Ġw ould
o red
Ġpart s
ĠT h
pro tocol
Ġover ride
wi ki
( ('
Ġme tri
345 67
ig nore
ĠI P
e val
p g
n u
v ation
Ġw ay
h idden
{ \
inter net
B C
Ġm any
ST R
4 6
ar is
es ted
Fa iled
Ġali as
E dit
094 2
to gether
Ġp lay
Ġ% \
back end
li ght
f alse
' [
Ġp lot
Child ren
Ġse par
en abled
ue st
ĠWIT H
o wner
ith ub
{ %
__ .
(\" /
({ \
Ġallow ed
li f
Ġpre vious
i a
ar ge
ma c
Ġcon structor
12 8
B O
Ġd one
ur ing
12 3
y y
li ter
Ġb ad
M ap
b ind
Ġan other
Ġsa fe
compile r
Dele ter
data set
ING S
ver ify
ĠS T
c m
Ġdi men
N N
P Y
\"] =
] ',
ma tic
in ner
cate gory
Ġlo c
ish ed
g lobal
st ar
sub class
~~ ~~
' \"
Ġr c
Ġse lected
sq rt
Ca che
Ġf n
Ġ\" --
Ġtest ing
ĠĠĠĠĠĠĠĠĠĠĠĠĠĠĠĠĠĠĠĠĠĠĠĠĠĠĠĠĠĠĠĠ ĠĠĠĠ
Ġne eded
ĠDe fault
B ack
() )
Ġv ol
W S
entic ation
Ġmis sing
mb o
Ġ ))\
ro y
Ġt m
M iddleware
se ek
tri es
ĠB y
Ġb atch
() ))\
Ġ---- ---\
da ys
Par am
B ar
pa re
g f
Attribute Value
FORM AT
Ġal gorithm
BU G
an sible
ed x
sh ift
Ġset ting
script or
Ġpk g
O UT
ro t
: \"
Ġco uld
Ġ+ \
ifi cation
te lif
ĠA l
7 3
P lugin
fi ll
U E
ul ate
Ġpro duct
Ġcal lable
9 2
un ch
Ġ2 5
Ac count
ĠRe quest
Ġsu ch
Po sition
Ġexten sion
c b
in st
ti ali
tr l
di us
Ġen sure
q s
un pack
up lic
Ġdif f
R AN
and id
sta ff
4 3
Ġpri mary
resh old
Ref Count
y es
Ġhe ight
Ġcer tificate
Ġp attern
um my
Simple RefCount
Ġpick le
sing le
= \
Ġc r
Ġre ceived
ĠM y
Ġim g
i con
ĠE N
RO M
Ġcontent s
xt ra
stru ction
ĠW hen
ĠCol umn
p pe
ĠM ode
V ariable
Ġ[ ('
ĠA R
ca p
M en
age ment
Ġ' ',
Ġlo op
e g
Ġs cale
) ',
Ġg ot
sc al
Ġcl uster
ser ialize
S p
l int
G E
s pecifi
Ġs im
Ġse conds
Q t
S D
Ġb el
get text
ac y
= _
A M
'] ),\
comple te
A UT
C ourse
Ġ >>
Ġsi te
ff set
mis sing
gener ate
se lected
ar Down
Ġs chema
la ck
Ġh ome
ĠA N
Ġuser s
} /
ĠĠĠĠĠĠĠĠĠĠĠĠĠĠĠĠĠĠĠĠĠĠĠĠĠĠĠĠĠĠĠĠ ĠĠĠĠĠ
rid ge
Ġpro vider
Cur rent
H A
co res
Ġh igh
ar s
Ġb ound
so le
cri ption
Ġ //
in teger
p ted
si red
pri vate
m aster
Ġi p
Ġdef inition
Ġinstance s
package s
Lay out
Ġimplement ation
ut or
Ġme an
comple x
R el
l ang
ut c
d st
Ġdown load
al k
Ġw x
Ġex it
Ġname d
Ġdi rect
([ ])\
resh ape
s leep
on y
Ġoc cur
A Y
g a
Ġ' ')\
Ġe dit
h ass
co s
Ġbin ary
fici ent
D ATE
ch ine
] ):\
ok ies
[ ^
Ġ queue
al le
Ġf l
9 6
L ink
Ġi ds
Ġre lation
Ġin dices
cry pt
r u
res sed
Ġnode s
s cope
ĠĠĠĠĠĠĠĠĠĠĠĠĠĠĠĠĠĠĠĠĠĠĠĠĠĠĠĠĠĠĠĠ ĠĠĠĠĠĠ
umb na
= -
r m
di g
: '
str ument
Ġ" \"\"\"
Ġlo ck
( %
Ġf ont
ab i
co okie
que sted
Ġfol der
MA X
Ġ-------- \
X T
tem s
4 1
i mple
Ġ vector
Se lect
Ġex pect
Ġst ats
fa iled
Ġ( -
ctor ies
fa cts
(? :
Ġwith in
F ilter
P RE
n mark
Ġt f
Ġother wise
fe ed
Ġbu f
M ac
Ġas ync
time s
ĠIn dex
I M
b f
lo ts
coun ter
Ġc tx
fail ure
ho ur
Re ference
per ly
ĠW AR
ta tion
pro perties
lic en
Ġvi a
) ]
, ))\
Ġ' $
Ġr ule
fil ters
h y
Ġm aster
i i
r al
Ġbut ton
ge om
it or
ĠB O
8 1
Ġf it
ver s
do cs
vent ory
Ġenviron ment
G ER
c la
Ġm u
pre ss
f lat
le g
Ġb it
si m
Ġv m
0000 00
W rapper
)\ \
Ġre moved
H ex
(' <
w arnings
ti ties
Ġal pha
Ġh ow
Pro perty
Pre fix
8 2
se quence
sc an
Ġdo uble
cs v
CO L
ĠB u
ad o
Se arch
C RE
c us
en able
Ġver ify
j ust
men u
Ġchange s
Ġwork s
cul ate
$ ',
N ew
en o
Ġw ho
assert Not
per mission
norm al
SI ZE
Ġs c
Ġs cal
Ġco okie
par ts
pix el
d ar
co ls
wa p
1 000
al ign
ToMany Field
ĠP O
Ġac tive
Ġquery set
Ġat temp
Ġmatch es
abs path
Ġp ublic
Ġ( %
format s
Ġpy lint
ch unk
ĠI O
A CT
M et
Ġ[ -
Ġ_ ('
Ġx range
r up
w x
Ġtrans form
G R
in v
ti d
Ġpro gram
) ;\
Ġme mory
Ġraise d
ĠRe ad
ou gh
D ist
T emplate
\" })\
ach ed
MO DE
us ing
CH AR
AG S
orig inal
9 3
Ġs parse
Ġs creen
Po sitive
f name
an e
Ġan s
Ġapp lication
Ġp ublished
ĠF I
25 6
Ġ1 3
ĠS QL
M ax
res ources
c ard
Ġf ra
mb ols
ĠO pen
CO MM
Ġupdate d
G L
Ġf inal
Ġs ci
Ġt ake
Ġen tity
P ri
Ġd st
ĠM eta
Se lection
be fore
D F
Net work
Ġs q
ĠHT ML
Ġre st
add ing
ab sent
CO DE
+ '
P assword
g ithub
t t
er nel
Ġst derr
Ġg l
Ġlo ader
mit ted
H ER
te cted
B ro
09 16
Col umn
de rer
Ġd ay
ST AT
Ġass oci
se l
ĠQ u
Ġde lta
ho ice
P T
b ranch
i re
Ġspec ify
de l
Ġst orage
ong o
Ġso ftware
exist ing
S ION
Ġre ason
Ġtime delta
Ġg lob
k t
Ġb oolean
he el
est imator
.. .\
ĠB o
trans lation
fir m
i de
lo ur
code s
IN FO
cer t
Ġi den
ra ft
val s
n S
Ġe valu
fo und
ff ect
Th read
Ġ edge
Ġc fg
Ġcor respon
Ġconn ect
Tra ce
Ġcomple te
ĠF orm
default s
A bstract
re quen
ra ise
IC E
Men u
X ML
k es
{ '
re lation
ar m
la g
liter als
s in
de tail
Ġpar sed
den tial
licen ses
E mpty
ak es
Ġas sign
Contain er
umbna il
M app
Ġ ])\
#### ##
Ġde termin
iz ed
U ST
Ġmo st
F oo
f req
Ġs cope
Ġin sert
Ġcomple x
4 04
Ġs pace
fail Unless
Up date
Default Deleter
F loat
ri ca
Ġde sc
Ġt ab
pe at
ve c
Ġle t
TE MP
tera ble
O ptions
v ing
or n
ar gin
ta ge
04 30
ĠEx amples
Ġdist ance
z en
ali ty
Ġgroup s
fl ush
N T
l on
r p
ri tems
Ġme ans
atter ns
t ty
se cret
ĠA d
bu iltin
ĠR a
av ailable
M IN
Ġn d
Ġst udent
([ \
metri c
Ġsuccess ful
C P
n ess
or ity
C trl
R ange
Ġa wait
Pro tocol
By tes
/ >
_ %
h istory
v as
Ġre lative
(' --
ighb ors
G raph
Ġp op
Ġco mb
Ġtra ceback
ĠWe b
RO OT
p ure
Ġmodule s
T ask
h ello
Ġin st
ate ri
ĠS ub
Ġneed s
Ġh ref
ĠSo ftware
unk nown
u ous
Ġre quires
Ġis sue
') (
S ystem
ns ure
abs olute
WOR D
M ask
Ġb ar
s pect
Re cord
fa ces
Ġ, '
pi der
Ġdi vision
gn u
W N
se e
la p
V ector
d raw
di an
no red
ne cted
M in
or ds
Ġcon dition
base name
h int
p ublish
} \".
The me
reg ion
Lo ader
RA W
H elper
red dit
fe ature
Ġoper ator
ĠString IO
S L
sh a
ON E
k s
Ġs core
is tered
Ġst ill
Ġ Error
fi xture
per son
cor ding
Fa il
M atch
i ble
Ġbe st
Ġro le
Ex ec
DO UT
contain s
N e
or ary
d one
is ode
la zy
Ġk ind
np lt
iali z
ĠCo mmand
iden tical
aris on
qui v
f mt
li ties
R ow
Ġc lear
at trib
fa ke
> ')\
A RE
ĠS y
\\ \"
s m
di cate
Attribute Checker
m iddleware
ex pi
ĠT emplate
di sc
Ġcollection s
Ġre set
Ġ1 000
ha vi
chedu ler
re a
Ġis n
po sed
ca ched
to ol
ĠRe g
P C
Ġnumber s
! \
Ġ6 0
coun try
Ġw rapper
Ġme r
Ġpro tocol
ĠMode l
Ġy ear
De lete
`` ,
R en
Ġp ut
ĠC O
Ġde cimal
Ġwe re
Ġc s
no te
penden cies
8 3
an ization
ĠD ate
stri ct
dep th
st or
ĠF ound
av ing
Ġcharac ter
/ ',
Ġcontain er
sum mary
se lection
Ġp l
092 6
Col or
a il
li p
up load
ĠD is
host s
Ġsh ort
clo ud
O F
s ur
-------- ----
`` .\
) \"\
an ti
lo gging
am ily
Ġac cept
ans wer
Ġlay er
query set
h n
Ġw ar
bo ve
content s
pri ce
at t
Many ToManyField
r v
po ch
Pro cess
Ġcurrent ly
Ġ2 4
Ġtime s
sub process
ad ing
Ġcomp ute
Ġsci py
' %
Ġ\" +
ex e
ĠX XX
Ġformat s
Ġali ases
) **
ter m
Not Ex
Ġ entries
DE F
ST DOUT
g i
en tity
di ent
time Error
Re move
Ġpro file
ĠU p
Ġle ast
Ġreg ion
Ġgener ated
Ġencode d
S INGLE
Ġi dentifier
target s
__ \":\
ĠD ist
Ġset attr
Value s
block s
ĠPo int
n x
en e
en ce
Ġcal ls
g on
Res ource
Ġse nt
Ġun til
Ġper form
ĠP re
Ġimp lied
Ġ{ })\
back ends
input s
( [\"
B e
a mp
Ġsub class
d uration
ĠA S
Ex change
const raint
Ġweight s
od v
/ \
m u
se curity
Ġi o
if est
) '
m or
ac ti
ir d
ĠW indow
) ;
. +
ĠG roup
Ġrow s
Ġa gg
comp at
plugin s
g l
Ġexp licit
Ġexception s
P ython
re ctories
Ġsh util
Ġp e
ri s
set ting
gener ator
v is
Ġco ordin
(\" -
Ġ2 3
ler t
DE BUG
reg istry
Ġsh ared
yn am
Ġthread ing
C ore
che my
reate r
at om
di table
state s
g is
sy mbol
E MA
S ession
di sp
Ġmon th
p red
Par se
LO CK
Ġc types
ul ation
d rop
n for
get Logger
set Up
su ite
Ġz one
su bject
Ġman ager
d l
Ġper missions
tex cept
n al
re ader
Ġf ig
Ġf etch
ĠF OR
ĠF ree
valid ation
exec utable
/ \\
P UT
s lice
part ner
R ou
Ġno te
. \",\
U SE
b ig
ti st
Ġw rap
Ġsi de
ĠAN Y
= \"\"
G I
i fied
Ġnorm al
Ġus age
, -
ten ant
find all
Des cription
+ \"
Ġsy m
N um
k ind
t try
du mm
cl one
Ġgener ator
7 1
Ġde code
ra in
time zone
Ġ< <
order ing
cer tificate
environ ment
th rough
ser ved
ls o
r l
s orted
Ġpri vate
) ?
] ],
Ġpro b
ag ic
P AR
f time
p n
is sue
IN TER
ĠĠĠĠĠĠĠĠĠĠĠĠĠĠĠĠĠĠĠĠĠĠĠĠĠĠĠĠĠĠĠĠ ĠĠĠĠĠĠĠĠ
HO UT
Ġpackage s
VAL ID
E mail
f ree
g ments
SE LECT
'[ ?
b er
w rapper
ĠI mage
Ġraise s
S V
Ġd ig
Ġa void
ĠĠĠĠĠĠĠĠĠĠĠĠĠĠĠĠĠĠĠĠĠĠĠĠĠĠĠĠĠĠĠĠ ĠĠĠĠĠĠĠĠĠ
B ad
y aml
Ġe p
AT TR
Ġexp ression
ĠWIT HOUT
ĠWAR RAN
b ul
get attr
ched ule
h and
'] ))\
Imp l
Ġc ategory
Ġs w
ate ly
TI ME
par ameter
po w
Ġpro perties
be gin
D U
j av
do m
n The
t n
t wo
ĠM an
om ment
reg istration
ash board
Ġtemp file
s ock
v ol
un its
string s
token s
handler s
e ve
s cheme
Ġg rid
Ġsu ite
SINGLE LINE
Ġ termin
Ġ# ##
pro c
jo bs
r pc
s age
er ies
Ġco ef
nd array
ĠIn teger
re ference
\\ '
ss l
Lo cal
gener ic
Ġauto matic
herit ance
Ġh ass
Ġar rays
CE SS
Ġf lat
Ġm ight
p to
ar ticle
li ca
assert HTML
AB IC
C D
M B
si bility
Ġde sired
Ġre cur
assi stant
, )\
Y R
b est
c ut
con v
cess ary
ĠAR ABIC
7 68
s d
Ġh elper
Ġe lem
Lo cation
s ync
ren cy
Time r
ĠEx ample
Ġbel ow
2 09
Ġf ill
Ġw in
Ġor g
Ġs can
Ġs pecial
Ex ten
ynam ic
log y
ĠTest Case
task s
Ġsupport s
ur ses
it le
comp atible
Ġpy game
Ġans wer
in c
Ġde leted
Positive IntegerField
assertHTML Equal
ut ing
ĠT ext
Ġsign ature
J o
ge o
Ġse ss
09 0
il ing
he et
pre dict
Me mber
static method
B E
I ME
table s
Ġth ose
dest ination
i dent
Ġ' \"
ĠM ulti
ĠGe o
t c
z es
Ġp layer
time r
ĠCh ar
dumm y
) -
_ {
ĠT rans
all close
per m
Ġch ain
Ġk ernel
Co mm
Ġvalid ation
image s
UB LE
distribu te
lo cale
Do es
argument s
ĠAuth or
re quires
Ġd at
is file
du ction
exp ression
sup ported
export Literal
B B
F in
m icro
s napshot
Ġre gex
ĠD RAW
NE SS
FL AGS
Ġp ix
Ġo k
Ġ_ ,
C an
Ġex pi
Ġen able
sign ature
modi fied
ĠBO X
Ġw arning
is instance
vel y
ĠQt Gui
R F
st andard
set default
instance s
inter nal
01 2
SS L
Ġdist utils
Ġexec ute
Ġstruct ure
J SON
t ten
ti m
pre cation
Ġcomp iler
ite ritems
as sign
po wer
or iz
Ġlo wer
04 35
FI X
dential s
Q ry
Access or
ĠDRAW INGS
p an
Pro file
: ]
A F
x ff
Ġtime stamp
Ġsup p
Y ou
* (
ro zen
Ġ1 7
ĠX ML
En ter
f r
Ġc ell
ĠA lso
Ġ4 2
Ġinput s
Valid ator
s witch
u dio
de cimal
Ġi teration
ĠS pa
mer ge
c ar
Ġc m
app ly
bo sity
__ .__
is dir
Ġro und
Not Found
ART IC
Ġmo ve
Ġmatch ing
l v
Ġa bove
re es
ad cast
Ġde ri
==== ==
Ser ializer
Ġextra ct
dig its
) \")\
C al
L S
L ATE
U ID
_ \
fi c
ĠTest s
) ')\
g lob
page s
Un it
lex ible
AUT H
comp ress
Se quence
Ġwor ld
({ \"
LO W
MA IN
ateri al
s ame
Ġre tri
Ġre lease
Ġin ternal
Ġ/ ></
libr aries
Su ite
Ġapp ly
agic Mock
g oogle
Ch annel
Ġk now
Ġser ies
plot lib
Ġassoci ated
- >
Ġ ed
Ġuti l
C re
j a
di ag
__ __
ĠN ode
99 9
Ġho pe
') [
h ort
Ġd id
Ġlo cale
ĠI S
IL LIC
Ġass ume
YR ILLIC
M ark
app en
Ġon ce
Ġcheck s
Ġweb page
g ree
re cords
ĠC YRILLIC
Ġtra ck
Ġtrans action
dered Dict
Ġnd array
00 5
Ġte arDown
T arget
ĠF ROM
Ġpo ol
ĠFound ation
a e
v g
Ġ ).
an i
version s
Ġpre cision
option al
Ġcase s
P ort
200 6
Ġchild ren
M y
f ol
ance d
LE D
) (
> '
P bb
def ined
Ġan aly
and as
ĠS imple
len dar
RE QU
Pro ject
Ġen abled
Ġimple mented
S chema
li sten
qu ot
Ġr v
url lib
im al
ĠAr gument
sume r
de vices
Ġd uring
ation al
ĠN O
Ġ5 0
Ġnode Name
EX T
par tition
UL AR
201 1
Ġnorm alize
Ġet c
NotEx ist
'[? ]',
er ature
from Hex
pro to
ĠN OT
ker nel
O ffset
me mory
(\" <
TE XT
PI PE
Auth or
ro l
Ġse en
P ost
s hould
Ġinter val
p ush
mo ves
() ):\
lay out
ĠIO Error
m igrations
ĠĠĠĠĠĠĠĠĠĠĠĠĠĠĠĠĠĠĠĠĠĠĠĠĠĠĠĠĠĠĠĠ ĠĠĠĠĠĠĠĠĠĠĠĠ
ĠN umber
Ġtoken s
IL ITY
' .\
: ``
Ġre quested
name spaces
Ġe v
Ġor d
ĠO ther
com ments
= ',
A X
a ce
v rf
() ),
exten sion
ĠUni code
uplic ate
O ver
er tificate
Ġin ner
Ġmax imum
element s
Element s
Per mission
variable s
E xtra
Ġ( _
Ġan not
res olve
pen dent
C UM
te ct
Ġin v
ĠĠĠĠĠĠĠĠĠĠĠĠĠĠĠĠĠĠĠĠĠĠĠĠĠĠĠĠĠĠĠĠ ĠĠĠĠĠĠĠĠĠĠ
Con st
main ing
lan e
Ġsh ell
200 0
Ġview s
metri cal
Ġi terable
ON T
VER SION
name d
di gest
ĠA c
ĠĠĠĠĠĠĠĠĠĠĠĠĠĠĠĠĠĠĠĠĠĠĠĠĠĠĠĠĠĠĠĠ ĠĠĠĠĠĠĠĠĠĠĠ
Doc ument
V AR
Ġpro xy
Ġun known
are a
> '\
} {
Ġf un
Ġf req
pro gress
Ġy et
config ure
local host
Ġ ValidationError
Ġs amples
read line
ĠCon tent
requen cy
Ġc lf
ate gy
in line
Ġde precated
sg i
c wd
se lector
Ġ1 8
comp are
\"] :\
scri pts
Ge ometry
I mport
p ub
ĠT able
par ty
Ġst ored
bo o
Ġversion s
orig in
= [\"
de cor
ĠF IT
dd t
RE AD
Ar gument
ĠS ystem
ER S
update d
AD D
F E
ge titem
scri be
da p
=[ \
Ġcorrect ly
******** ********
Ġf ix
ct ure
si an
comp ute
cre te
Per son
Ġcorrespon ding
B R
C lean
co ef
Sta ck
A SS
Ġo wn
un ic
ex pect
ne g
> \"
b eta
w is
at tach
Ġ\" )\
Ġw ell
ati bility
Does NotExist
5 16
ar row
Ġin dic
Ġse lection
={ \
3 00
ĠU N
Pro vider
PO SE
exten sions
768 4
T ab
f un
ser ve
Ġ[ ]
us ters
sh are
ĠE vent
Ġorder ing
LI ST
B ACK
ul lable
con dition
no mi
tra ck
Ġcoun ter
A me
Ġ 64
de tails
Ġset s
Contain s
D L
Ġp id
co ver
Ġma c
the class
ializ ers
ce ive
ex clude
ast ype
E num
g ent
no tification
ap ter
Ġcomm it
ĠC al
Re gex
ab stract
Ġpre v
zz zz
ame ra
pro g
require ments
m ultiple
li ve
and s
j or
Ġre distribute
set Equal
per iod
Ġtime zone
cript or
havi or
R andom
Ġpa yload
su ffix
iali zed
r type
t ar
Ġde cor
ER CH
Ġsome thing
vari ance
m c
str ftime
Ġsu bject
distribu tion
Ġb ro
By te
. '\
th eta
ĠP ARTIC
) '\
N G
eff ect
abi lity
d r
t config
ar ma
ct x
Ġne cessary
as y
li es
ĠIn ter
penden cy
Ġmetri c
ERCH ANT
e lem
r ator
Ġs aved
Ġm d
ĠOn ly
b gp
Ġad ditional
ĠRun timeError
Ġwar ran
B ig
ss h
Ġconst raint
AB ILITY
Ġact ually
ĠWARRAN TY
g amma
Ġdef ine
Ex it
UR POSE
Ġrepresent ation
Le vel
andid ate
ĠWindow s
Ġwarran ty
tra ce
At tr
fore ign
209 9
b its
i tes
() ),\
per i
Lay er
Ġagain st
ĠOption al
4 00
P ick
ĠP URPOSE
Ġme nu
Ġcer t
5 00
I Z
n y
ly ph
CONF IG
ĠFIT NESS
ĠPARTIC ULAR
ERCHANT ABILITY
B in
se par
(\" .
Ġe c
C hoice
Ġ ]
ĠS IGN
Ġun its
Ġtrans lation
Ġig nored
On ly
/ ')\
5 40
C LI
== '
ci al
lic ense
arch ive
lay ers
Ġwor ds
To ol
043 8
66 13
Ġlink s
Des criptor
g d
qu are
Ġst at
Ġoper ations
ribu tion
ale nt
Ġ 00
ĠS ta
ĠL ine
.. ..
Ġfa ctor
Ġ{} \".
Ġdocument ation
ntax Error
Ġpair s
ĠOS Error
Ame rica
s ources
Ġt urn
ĠM ERCHANTABILITY
Ġen gine
Comp onent
: ])\
D el
di men
Ġse q
Query setEqual
. '
L D
\" +
ti mi
Ġh appen
out ube
ĠData base
C annot
n l
assert QuerysetEqual
list dir
ren ce
im ate
count s
ĠMo dule
quiv alent
S U
o ted
en sor
Re p
helper s
date s
Ġcomp are
process ing
Ġappro pri
. )\
o ols
{ \"
\"] [\"
Char ac
channel s
nk Theme
Ġin side
Ġac ti
pick le
tr as
config uration
Po licy
Ġimage s
most Equal
PA SS
F C
Ġt s
Ġ2 2
template s
pack et
dis k
assertIs Instance
S IGN
b ro
ba z
Al mostEqual
iden tity
M ENT
S up
a ws
b rowser
re ason
al chemy
ce i
Ġcomp at
HER E
i er
m id
se ed
de lay
Ġh our
Ġup load
Ġda ys
i dentifier
la h
Re direct
pt ure
col lect
, \"
Ġp in
Re quired
ener p
AP P
Ġho ok
Ġdirect ly
u les
ser vices
Ġpo sitive
String IO
se gment
ra ble
Ġto ol
Co py
Un known
Ġb oto
Ġ1 9
ĠL E
function s
FI EL
ĠAr ray
in teg
Ġs witch
lo ss
RE D
File s
Ġfil ters
Ġest imator
pol l
Rou te
Ġre ader
ra g
Ġw rong
pa yload
Ġex clude
ĠN et
ir th
ali zation
11 11
allow ed
Ro ot
O M
Ġu uid
Ġhe ad
RO UP
Ġcho ice
_ =
Ġex act
res c
Ġt yp
clean ed
A V
N ext
ti le
\"\" \")\
ĠH e
Di alog
const ants
. \\
i br
n umeric
04 42
und le
We b
Ġarch ive
F unc
re duce
on ce
ate r
ver ti
pre vious
ĠU T
Co uld
TEST FN
Ġhome assistant
boo lean
B LE
R ate
z o
} }
un der
res ses
ĠG E
ĠThe se
Ġadd r
assifi cation
Met adata
Ġf d
'] ),
age d
Ġg ame
Ġlo w
pre v
ip v
D AT
G T
O UR
f b
w b
Ġ\" _
vi sit
Re ader
P rint
Ġh ex
ten v
Ġpo licy
n E
s mall
'] )
Ġsu ffix
Ġvi sit
weight s
34567 89
u ses
Ġf i
Ġ1 02
De cimal
fra c
Bro ker
L ock
Ġ' +
pla ces
Ġlist s
clo sed
CON T
ĠAr gs
rup t
: -
g m
Ġ ?
de ep
me m
ty le
ol ved
pi ent
201 4
pip eline
k el
Ġf mt
Ġre cords
ĠA ll
AR Y
Ġa ppe
di ms
Ġtest dir
ĠE nsure
M is
s rid
Ġp ad
uni ty
EV ENT
A IL
Ġ' #
') ]\
ran k
Ġpix el
b reak
le v
Lo ad
`` \
IP T
u a
Ġf name
wh ile
P h
b al
as cript
Ġd raw
ĠDO UBLE
h igh
{ {
Ġ' ',\
Ġc enter
vi sible
Ġde v
de leted
ul ari
con ver
ver tical
sh ell
ci rc
094 0
Ġurl parse
201 3
bl ue
al th
an aly
Ġt akes
Ġs lice
un link
ch or
et c
=' ',
Ġno thing
ĠIn valid
Ġne gative
Time out
iter ator
Str uct
ca pa
Ġfa ke
Ġ| \
Ġ{} ),\
) ',\
) ],\
F ont
c tive
d ag
g b
i um
__ ()\
oriz ont
t l
ĠT EST
ĠF ORM
port s
* '
F lexible
L L
c ce
h ref
o auth
Ġd ump
Ġb ig
pla in
Ġpo wer
Pa rent
y les
Ġp r
ĠRe move
Ġper iod
i ted
Ġc ached
ĠS ome
we ek
! !
G S
p ad
Ġp ol
ĠE X
Ġtask s
book s
Ġte am
' ll
( \"\"
) \",\
B UT
D D
y ment
In i
trans late
metri cs
A v
c nt
Ġf uture
co mb
Ġb ranch
ex ternal
res olver
201 2
widget s
Mapp ing
M sg
d c
r ing
Ġb asic
par tial
AR K
BA SE
U ti
ĠC H
ER T
ci pient
ON G
Ġcl one
Name s
agg regate
Const raint
S pec
n m
ut down
Ġ2 9
rite ri
auth ors
trans action
co eff
ri ve
yn ch
Ġgo od
Ġattemp t
5 35
quen ces
sis tent
Su ccess
R C
at ar
ue ss
12 7
Name d
Ġli sten
Data base
diff e
HE AD
Flexible ForeignKey
Z ip
(' _
Ġl arge
88 59
wh en
Ġ\"{ {
/> .\
S how
as set
Ġb its
qual ity
=\" /
Ġk nown
88 4
Ġmodi fied
Ġinclu ded
O bj
a lf
de s
mo us
con tact
Ġstate s
Ġs cheme
ra dius
ces ses
L ANG
Ġ\" (('
co okies
si tes
ne ed
Ġfail ure
Ġtz info
sertion Error
2 02
Ġ ur
ĠI mp
################################################################ ########
5 09
: </
A MPLE
Ġ Valid
Ġa st
for ward
ĠO ne
Ġge o
(_ (\"
Ġdep th
Ġstri p
/ '
c ms
Ġst ar
SS ION
Ġcal cul
Ġax es
Ġcomponent s
I ST
W or
g z
y per
Ġi con
Clo se
> ),\
H ost
M C
e m
u c
ti t
ge s
bu ilder
([ ^
spe ed
ĠChar Field
Ġ escape
an tity
Ġs m
Ġ[ (\"
ST ATE
RE E
LE TE
fra gment
sym metrical
Ġmat plotlib
pa che
IC AL
\"> <
Cl assifier
Ġhost name
ac cept
for med
func s
norm alize
Ġdest ination
web site
tz info
de scriptor
() ]\
if orm
Ġlo aded
ph er
specifi c
S o
n dim
t m
on al
Ġp ur
ten d
Ġdis k
std in
E P
N OT
th reshold
AS H
ĠCON F
/ (
g reen
ction s
im ators
/\\ /\\
_ ):\
o c
Ġs ock
ut put
run ning
Ġbu g
nT his
ĠID L
CA DE
b d
b lit
Ġc p
module store
Ġg tk
bo ot
AS CADE
wh ich
:` ~
fer red
Ġautomatic ally
c mp
de le
Ġun pack
Ġle ss
cs rf
Ġfa ctory
disp atch
+ +
V I
n I
er ry
pe ed
time delta
sc r
Ġdo m
Ġconst ants
nel se
M D
T e
h at
sh ared
ĠN ew
CT ION
iv es
S AP
Ġ' &
Ġ' )\
Ġd ue
Ġde le
xt ures
back ground
Lo op
Ġdimen sion
Trace Source
Y PE
f ri
ys ql
bo unded
div id
6 00
Ġd rop
Ġ2 55
ali ases
Un able
S end
get value
Lo okup
stream s
Ġtable s
S mall
U D
Ġar r
Ġ}} \"\
ci p
vo ke
co ords
Ġ\"\"\" <
T emp
c um
de precated
ĠThe re
meta class
fol low
T itle
gg le
ĠNo tes
Change d
TEMP LATE
wis ted
* .
b ed
p ending
Ġin spect
Ġy aml
Ġx module
comp o
ĠB e
Ġ/ >\
ash es
En tity
Action Field
orizont al
a fe
k ing
w atch
Ġf low
Ġin line
li er
il la
Ġbo x
dis able
33 33
Ġappropri ate
Ġp ush
ĠĠĠĠĠĠĠĠĠĠĠĠĠĠĠĠĠĠĠĠĠĠĠĠĠĠĠĠĠĠĠĠ ĠĠĠĠĠĠĠĠĠĠĠĠĠ
Par ameter
b um
Pro xy
S cope
g res
v end
ment ation
im it
Ġ.. .\
Config ured
a odv
s lot
t or
li ct
Ġ2 8
len code
late st
App lication
G Y
M igration
` .
n test
AT OR
Ġpar tial
Se q
Ġmin imum
ATE D
E E
p d
Ġc at
In formation
Ġse gment
Ġma chine
'), )\",
li ance
], [
IN D
St orage
En able
SER VER
orn ado
ibr ary
1 01
H ello
Ġ es
al g
no tify
Option al
A SE
e mbed
\" '
in ator
Ġb s
assert AlmostEqual
cal ls
12 34
Ġallow s
Ġfe ed
nomi al
Ġre cent
Ġde n
Re q
Ġ3 1
ĠVer sion
Ġ' '.
th umbnail
09 02
po six
AT URE
PO INT
C UR
N orm
i zer
n add
in clu
Ġc y
cl ar
Ġe ffect
Ġres ources
with out
row se
Ġcre ating
: \",
me s
Ġt x
lo or
ite rable
Clean up
E CT
V olume
W AR
n DATA
ax es
D ER
I I
L Y
} )
Ġt b
Ġpro p
gra mm
member s
struct ure
Ġbet ter
wri ter
Ġdimen sions
' <
= ('
g ot
p atterns
v lan
Ġma g
ĠO R
Co mple
char s
Ġsy ntax
b et
t ot
u ch
co very
ex act
ig rate
Ġpro gress
ten ce
Ġcre ation
ra tio
ĠF oo
Ġma il
ou ble
top ic
OP T
ĠOr deredDict
a ther
Ġlo ss
tri p
vel op
ĠPer son
ĠUp date
c u
in heritance
re w
Ġd up
In line
no tes
ĠL og
return s
67 1
Ġfail s
C ASCADE
R ight
ro s
Ġbe gin
Ġma de
line ar
ĠData Frame
pair s
pro b
Ġr ate
Ġj s
atri ces
Ġcall ing
mi ted
Ġob tain
S um
s aved
Ġ\" \")\
si b
il t
der s
Ġser ialize
act ual
( ':
> ',
cs r
[: ]\
fin ished
( ',
P oly
S ec
S cript
k o
ĠW HERE
Ġle g
sub mit
ĠIn put
Ġreg istered
Ġaction s
gor ies
Ġtrain ing
STR ING
Account Field
C UST
H ttp
Ġ* ',
ĠN e
Ġit self
ne ighbors
Ex p
Ġconst ant
Ġbo ok
Le ft
Gener ator
ĠDE FAULT
d ashboard
ĠA bstract
Ġdi ag
pre view
K EN
\" %
Ġs ur
092 5
sq lite
mor ph
w sgi
ti ce
as ure
ĠS h
Ġse c
ĠM essage
IN F
place holder
Ġfa ce
ĠAnsible Module
.+ ?
e mon
file path
ab ly
To One
Ġsy mbol
Ġmask ed
rol led
Ġp andas
ĠF unction
que t
bu cket
Ġch r
annot ate
FILE S
ĠGe ometry
alle l
J ob
f k
p in
ĠSer ies
} \"
ĠN ULL
Ġsim il
s olution
y e
In ve
Ġal ign
request s
run time
sy mbols
m ongo
v a
re peat
def inition
ut ation
Ġnew line
check er
cate n
Ġwork ing
Ġren dered
edit or
crement al
ĠLE FT
+ ',
} \\
Set tings
Ġsetup tools
assertIs None
) ],
, ),
C omment
] ).
Ġm s
ig en
Ġr ng
Ġsi mp
spa m
Ġd river
Ġb l
ĠRe gs
Po ol
Ġauth entication
P lease
c ancel
en sure
ro perly
un expected
Ġg it
04 40
Ġre try
par sed
lin eno
col ors
ref resh
content types
Di rectory
Ġend point
Ar ticle
N a
e ps
j ac
Ġo uter
ul a
Ġapp end
UT F
Ġtra ce
Ġsql alchemy
vers al
ĠBo ok
at al
ĠS ession
Ġde scriptor
Ġdi m
Ġl ang
Ġinter pre
CUM ENT
Inve stor
d n
n v
se en
Ġa verage
Ġd mp
Ġget s
cry pted
Ġter m
Ġdetermin e
Ġc e
Ġ( [
Ġcomp ile
Ġqu ote
a ctor
e ditable
n A
as se
Ġe quivalent
LOG GER
N ING
S tyle
t ol
Ġc la
Ġde pendencies
fe rer
Ġ{} ,
ffff ffff
ĠOther wise
S IG
ti alized
ER GY
exp and
D jango
t u
Ġ4 0
update s
=[ ]\
Bo unded
O bs
Ġs mall
Ġin d
Ġb ot
ul ator
par ame
ĠA T
change s
Ġorig in
xxxx xxxx
ĠQu ery
divid ual
E d
in stalled
ĠC an
ĠN ow
Node s
pl ural
ĠEN ERGY
peri ment
[ ]
r st
v or
Ġ\"\"\" )\
len ium
Ġres olve
Ġcom ments
M on
N C
W ri
ĠT ree
OR IZ
\") ),\
Ser ialize
dest roy
A pi
Ġa mount
er red
Ġt ol
ĠP ost
Ġ{} '.
erry py
m as
Ġd ummy
vi e
tr al
code c
ĠU P
094 8
################ ########
Ġser ializer
mt ree
stal lation
Ġlay out
Ro le
( \"\"\"\
Ġs in
Ġo wner
Ġex ternal
ag ers
cur rency
Ġrepo sitory
re view
ort ran
ang ing
') ))\
Ġfile names
ĠH AS
sub set
Ġge om
Ġblock s
sec ure
v id
Ġ ----------------------------------------------------------------
ro id
Ġs sl
ad v
ĠT ry
ly ing
([ (
Ġvar s
F lag
M AP
Ġs ources
Ġs olution
it ude
ise ct
044 1
Ġrepresent ing
EMA IL
f amily
de c
Ġ2 1
=\" %
Ġdi rectories
ne gative
Ġtime r
Ġne ver
DO MAIN
) }
) \"\"\"\
N on
con struct
app ro
match es
Ġop enerp
Uni code
Oper ation
Ġoccur red
Ġmer ge
P os
n r
Ġ ~
Ġa round
ke mon
092 3
Ġreg istry
Ġcount s
SAP T
H o
M agicMock
de ri
de pendent
ac tivity
ĠAn y
Ġconnection s
uff le
roperly Configured
re v
re try
re lative
ve y
ĠW or
Ġcheck ing
ste ps
cy cle
Ġchar set
go od
~~~~ ~~~~
s la
Ġe mbed
ĠL O
Ġhost s
ĠDo c
ĠRes ponse
ĠPO ST
m ul
n ed
Ġin f
di git
ble ms
Ġbe havior
Ġcomp atibility
Al ter
tera ctive
ony mous
S top
s wap
li text
Ġ[ ],\
Ġg amma
Ġany thing
75 28
wh ite
web page
ctype s
F ind
ĠD IG
Ex pected
CH E
Col lection
^ {
Ġ urls
Ġn one
ser v
Co okie
Ġcli ck
bul k
D eta
F irst
H BC
T op
n ative
w kt
Ġra dius
Ġapp s
iz ard
hi de
Fe ature
Ġprovide s
PASS WORD
P K
o wn
p x
p df
ar rays
Ġc ap
Ġas set
Ġro ute
process or
--- +
ynch ron
p at
Ġt gt
Ġs lug
Ġd ot
form set
cre ation
Ġver y
ĠDe cimal
Bo ok
C F
r ont
Ġ\" [
Ġm igration
pro ps
ID L
Fail ure
> \"\
Ġw on
ST ART
Ġcode cs
Address Value
Ġup per
Ġchunk s
ĠBu ild
precation Warning
c lf
n ume
s li
co st
ĠF OUR
Ġare a
REQU EST
p ublished
Ġre d
co ol
bo th
Ġun signed
tic ular
man agement
SC R
Ġcoef ficient
a verage
h ist
Ġ qui
pre p
for mer
load ing
den ce
Ġmetri cs
in ct
Ġn ested
Ġbase string
vo ice
Ġback wards
Ġag ent
Ge o
Ġhand ling
yy yy
Extra ctor
Ġ question
00 02
ĠC S
sign als
: /
ro me
Ġn b
Ġu gettext
ĠR el
control ler
ĠSpa tial
Charac ters
morph ic
S pace
V ICE
d raft
te ri
an o
Ġex amples
ta bs
ĠC ode
Ġde vices
ĠF e
if f
Ġwe ek
base d
STAT IC
L ast
d m
s ho
w alk
Ġ ^
tion s
#### \
Ġde lay
Con n
RE F
sub net
ĠCo un
Ġwork er
pl us
ites pace
M ake
U sage
Ġth ings
Ġp ag
el ls
00 3
Ġ2 7
Ġarg parse
Ġwidget s
Ġ---- -\
medi ate
Ġ102 4
ĠDIG IT
' m
> %
L imit
S ingle
en tities
co ordin
ir t
vide os
S ave
x fe
Ġw arn
age s
Ġdi rection
op le
Ġno tification
Ġbu cket
mk dir
I AL
t I
re vision
up on
res sions
list s
Ġ5 00
Co un
Ġla zy
Un expected
En coding
../ ../
tit ude
ti re
up grade
ĠA nd
po logy
wor ld
Test ing
En abled
Ġgener ic
Order Field
scal ar
G ROUP
M T
_ [
er os
Ġpro perly
Ġrun ner
in ventory
Ġf rozen
** \
tra cker
Ġline ar
tin uous
Ġiter tools
COMM AND
/ '\
C ustom
b g
Ġa ble
Ġf o
ĠO bject
Ġwri tten
Ġsupp lied
d ns
te ps
Ġs rv
co g
ĠC lo
ĠF irst
Ġpar ticular
> ',\
E C
S ample
k arma
l and
x path
Ġ Value
st ub
an is
Ġs napshot
Ġse nsor
pre pare
Ġapp lied
DO CUMENT
DU LE
J ECT
st rap
Ġc en
Ġre ct
pe er
ĠT ra
ĠH o
sub s
AD ATA
Ġclo sed
/ {
en ch
ver ification
Ġm k
ĠC l
ĠV ariable
File name
EX AMPLE
P open
S UB
b us
## #
run ner
Ġdis abled
char ac
Config uration
Ġexten sions
ĠVer ify
hook s
Ġconver ted
parame tri
d y
e red
u ro
Ġk lass
Ġdir s
sen der
ĠAs sertionError
c art
si st
[' _
ĠC ur
Ġfile path
ĠIn i
Ar gs
Ġexec utable
Run ner
Back end
I VE
a ma
a mount
g mail
j pg
v c
se nsor
al len
al gorithm
Ġre duce
con firm
ab out
Ġstart ing
Ġback ground
EV T
Ġstri ct
I dentifier
S ite
| \\
Ġf ixed
Ġn x
ver sed
do es
tra ceback
Ġper son
Ġtarget s
oper ation
sig ma
FIEL D
C ell
a z
re name
re cted
Ġc ir
ed u
Ġadd ing
Ġbu iltin
Ġsuccessful ly
. ',\
F uture
t w
Ġ' [
Ġp ie
Ġt ar
Ġu v
fa st
RE G
Ġzip file
ĠImp roperlyConfigured
, <
B it
W ARE
b irth
j ax
r strip
s cores
Ġ virtual
ser ializer
lo pen
mo re
ul ated
Ġpre di
token Queue
z on
def ine
ma chine
ĠF ind
TO KEN
flat ten
jav ascript
A ME
d up
Ġc ry
ct ools
Ġ( ?
con nected
Ġcon tact
Ġpro mpt
IN K
we ver
output s
SI BLE
Ġiter ator
Ġfra gment
F D
H andle
Ġb ind
pro gram
ĠP ath
add on
ph ase
ari o
dis abled
edge s
ĠLo ad
a gs
or i
Ġin dicate
Ġ( )\
Ġex clu
Ġr ank
Field s
comp arison
nCThostFtdc Qry
ful ly
sl ash
>, <
G ra
T S
U se
i ki
ĠC ity
RE CT
ler ance
state ment
are st
Ġread ing
fin ite
Ġscal ar
Ġt k
Ġb rowser
qu ared
tr unc
ĠM igration
ĠR IGHT
DE LETE
Ġte x
wit ter
ĠDi ct
ACT ER
Ġsq rt
SCR IPT
# ----------------------------------------------------------------
F S
b rowse
p m
me sh
di alog
Ġe val
Ġr ules
Ġpro to
split lines
av a
ĠSe lect
CLI ENT
S Y
U rl
x i
di f
cl usters
)) "
Ġwri ting
PRE FIX
ĠFI X
ĠCH AR
D ouble
n ested
re at
te nsor
at temp
Ġd uration
Ġpar tition
Ġac cording
RE NT
St andard
skip Unless
ighb or
U ND
p lan
en rollment
Ġre ally
co urses
Ġco re
01 7
Ġdir ty
cat alog
] [\"
as array
fi gs
po sitive
Ġro uter
sp litext
av g
viron ment
\"> </
MET ADATA
Sy mbol
> \")\
p th
u g
} .
pa red
Ġan gle
Ġde scri
tic s
cur r
Ġtoken Types
Mo di
N ULL
Ġh ard
Ġse ed
ĠD B
Ġpar sing
Ac tive
[ (
k b
n or
cal lable
10 24
back up
Ġpre c
Ġro ut
He ight
ĠPro ject
ĠSt art
l ash
(\" --
do ctype
Ġper mission
cc cc
MS G
Ġsw im
' /
ex tras
Ġh idden
() .\
ĠĠĠĠĠĠĠĠĠĠĠĠĠĠĠĠĠĠĠĠĠĠĠĠĠĠĠĠĠĠĠĠ ĠĠĠĠĠĠĠĠĠĠĠĠĠĠ
VAL UE
Ġpi pe
H as
H elp
] :
Ġ orm
re cur
si a
Ġpro c
Set up
ĠTest ing
Object Base
XX XX
Ġagg regate
dimen sion
ĠGE OS
n version
p ur
09 07
ĠE lement
'' '
En gine
on d
ist ic
ĠĠĠĠĠĠĠĠĠĠĠĠĠĠĠĠĠĠĠĠĠĠĠĠĠĠĠĠĠĠĠĠ ĠĠĠĠĠĠĠĠĠĠĠĠĠĠĠĠĠĠ
bit r
Sy ntaxError
Ġglob als
G P
ge ometry
Ġn c
Ġs s
ser ial
ĠS up
De f
62 37
Tag List
bound ary
e poch
ti cks
en um
Ġs olver
ĠF ake
sub type
obj s
parametri ze
R ad
Ġco s
ĠC lient
Ġor dered
'} ,
ther net
col lector
EN ABLE
ou ter
be ard
rand int
or ing
Ġth ree
Ġfor ward
la ce
ss ue
ĠF oreignKey
ĠM ax
work er
Ġdis patch
Ġrun s
Res c
Ġver bosity
location s
gramm ing
G lobal
S ome
b an
Ġas k
Ġe gg
tra ct
ĠSt ate
Ġsc ra
G INE
p lit
st yles
Ġ\" (
Ġw heel
ck beard
est imators
vo te
DI S
Ġlin eno
W idth
Ġ KEY
er ce
sc ene
__( *
Ġpre vent
ĠR en
AB C
ĠFIX ME
/ (?
I teration
Z ero
b ridge
Ġc sv
Ġd s
pro tected
Ġen rollment
Ġapp lic
UR SE
MO DULE
ĠZ Z
cog ni
) }\
F R
us sian
Ġv tk
ĠW hether
Ra w
Ġca use
Ġdif ference
L A
P ush
c py
se g
Ġn a
ĠT ask
Ġ* =
ĠU sed
Ġ4 04
Ġper m
Bu ild
cp u
h ave
Ġs alt
con sole
Ġcon struct
pre tty
Ġthread s
assertNot Equal
Ġassign ment
###### #\
velop ment
g ui
Ġ' :
Ġre si
Ġp adding
Ġac ce
ĠO ver
Ġmember s
Ġmu ch
C all
P i
m ysql
Ġ uri
00 2
(\" [
() :
add Callback
fig ure
Ġun less
ST RE
Ġca pi
62 40
je cted
ĠAd min
Wri ter
O B
S ync
e valu
n module
Ġf s
ĠS U
us ted
no ptions
CO MP
make dirs
esca ped
deep copy
R ect
pa g
il li
Ġv rf
ari ty
Ġnamespace def
star ted
Ġdig its
] ],\
Ġ= ======
Ġ# ################################
Ġ1 28
ĠP age
ĠA C
ten ded
LO AD
Multi cast
ĠIndex Error
> =
k ill
v tk
y outube
en force
Ġen ough
cen e
Ġexport Literal
1 0000
M ain
\" {
in ja
ter ms
ĠC ustom
ni ppe
some thing
###### \
' ',
N ull
i an
t assert
re load
Ġ' *
Ġn ullable
Ġin ventory
Ġar ticle
ĠE ach
min utes
Ġcheck ed
Ġone s
xy z
oper ations
Content Type
Ġrequire ment
Ġbound ary
Ġ' ?
Ġ\" #
int s
code name
ĠL e
ĠM atrix
De serialize
ID D
Pro duct
CO OK
ĠJ o
failUnless Equal
dap ter
caten ate
D T
O FF
W I
z illa
Ġ tenant
con cept
ĠI s
ĠRe ference
Ke ys
has Content
cer ts
cli p
Ġmon itor
imp l
vend or
G B
T lv
s pider
ĠS ource
lock ed
UT E
bi an
entic ate
Ġwri ter
g id
g uest
de no
Ġ' {}
li ck
Ġra ther
Ġmodule store
cur acy
mi tive
UN K
Ġini tialize
war ding
Ġet ree
ĠSy mbol
V ar
Ġre view
Ġth ing
Ġ# :
ĠS pecifi
end point
ac quire
Ġpre pare
ec tive
Ġconfig ure
ĠV ector
En coder
Ġover write
Ġiden tity
x p
Ġc c
an el
Ġre ferences
Ġth ird
assert Contains
uni on
ĠCon vert
Ġ8 0
ĠAr ticle
Ġlocation s
_=' ',
P art
ra m
nt o
ĠT H
Ġst uff
In strument
Ġtuple s
Ġprocess ing
Bu ilder
Trans form
sv g
ĠBy tes
DEF IN
/ ',\
0 33
T ri
] ))
c atch
y si
ri gin
(' #
ĠS top
Ġfa st
11 1
Ser ies
Ġhash lib
TH ON
assertNot In
$ ',\
C AC
M ultiple
s rs
in crement
Ġp lease
ty p
Ġg ive
Ġpro blems
ĠĠĠĠĠĠĠĠĠĠĠĠĠĠĠĠĠĠĠĠĠĠĠĠĠĠĠĠĠĠĠĠ ĠĠĠĠĠĠĠĠĠĠĠĠĠĠĠ
tp ass
ĠO GR
ref s
Ġso uth
Ġval s
Ġlong er
SO UR
Ġpip eline
SP ACE
ORIZ ONT
> [
ti a
Ġa m
Ġa p
Ġco okies
In teg
fo cus
Ġma kes
pre cision
read lines
ĠR FC
ap pa
