{"<s>":0,"<pad>":1,"</s>":2,"<unk>":3,"<mask>":4,"!":5,"\"":6,"#":7,"$":8,"%":9,"&":10,"'":11,"(":12,")":13,"*":14,"+":15,",":16,"-":17,".":18,"/":19,"0":20,"1":21,"2":22,"3":23,"4":24,"5":25,"6":26,"7":27,"8":28,"9":29,":":30,";":31,"<":32,"=":33,">":34,"?":35,"@":36,"A":37,"B":38,"C":39,"D":40,"E":41,"F":42,"G":43,"H":44,"I":45,"J":46,"K":47,"L":48,"M":49,"N":50,"O":51,"P":52,"Q":53,"R":54,"S":55,"T":56,"U":57,"V":58,"W":59,"X":60,"Y":61,"Z":62,"[":63,"\\":64,"]":65,"^":66,"_":67,"`":68,"a":69,"b":70,"c":71,"d":72,"e":73,"f":74,"g":75,"h":76,"i":77,"j":78,"k":79,"l":80,"m":81,"n":82,"o":83,"p":84,"q":85,"r":86,"s":87,"t":88,"u":89,"v":90,"w":91,"x":92,"y":93,"z":94,"{":95,"|":96,"}":97,"~":98,"¡":99,"¢":100,"£":101,"¤":102,"¥":103,"¦":104,"§":105,"¨":106,"©":107,"ª":108,"«":109,"¬":110,"®":111,"¯":112,"°":113,"±":114,"²":115,"³":116,"´":117,"µ":118,"¶":119,"·":120,"¸":121,"¹":122,"º":123,"»":124,"¼":125,"½":126,"¾":127,"¿":128,"À":129,"Á":130,"Â":131,"Ã":132,"Ä":133,"Å":134,"Æ":135,"Ç":136,"È":137,"É":138,"Ê":139,"Ë":140,"Ì":141,"Í":142,"Î":143,"Ï":144,"Ð":145,"Ñ":146,"Ò":147,"Ó":148,"Ô":149,"Õ":150,"Ö":151,"×":152,"Ø":153,"Ù":154,"Ú":155,"Û":156,"Ü":157,"Ý":158,"Þ":159,"ß":160,"à":161,"á":162,"â":163,"ã":164,"ä":165,"å":166,"æ":167,"ç":168,"è":169,"é":170,"ê":171,"ë":172,"ì":173,"í":174,"î":175,"ï":176,"ð":177,"ñ":178,"ò":179,"ó":180,"ô":181,"õ":182,"ö":183,"÷":184,"ø":185,"ù":186,"ú":187,"û":188,"ü":189,"ý":190,"þ":191,"ÿ":192,"Ā":193,"ā":194,"Ă":195,"ă":196,"Ą":197,"ą":198,"Ć":199,"ć":200,"Ĉ":201,"ĉ":202,"Ċ":203,"ċ":204,"Č":205,"č":206,"Ď":207,"ď":208,"Đ":209,"đ":210,"Ē":211,"ē":212,"Ĕ":213,"ĕ":214,"Ė":215,"ė":216,"Ę":217,"ę":218,"Ě":219,"ě":220,"Ĝ":221,"ĝ":222,"Ğ":223,"ğ":224,"Ġ":225,"ġ":226,"Ģ":227,"ģ":228,"Ĥ":229,"ĥ":230,"Ħ":231,"ħ":232,"Ĩ":233,"ĩ":234,"Ī":235,"ī":236,"Ĭ":237,"ĭ":238,"Į":239,"į":240,"İ":241,"ı":242,"Ĳ":243,"ĳ":244,"Ĵ":245,"ĵ":246,"Ķ":247,"ķ":248,"ĸ":249,"Ĺ":250,"ĺ":251,"Ļ":252,"ļ":253,"Ľ":254,"ľ":255,"Ŀ":256,"ŀ":257,"Ł":258,"ł":259,"Ń":260,"ĠĠ":261,"ĠĠĠĠ":262,"ĠĠĠ":263,"ĠĠĠĠĠĠĠĠ":264,"se":265,"\\\"":266,"ĠĠĠĠĠĠĠ":267,"in":268,"re":269,"on":270,"te":271,")\\":272,"st":273,"or":274,"de":275,"Ġ=":276,"le":277,"th":278,"lf":279,"self":280,"me":281,":\\":282,"al":283,"ti":284,"ĠĠĠĠĠĠĠĠĠĠĠ":285,"Ġa":286,"er":287,"Ġi":288,"Ġ'":289,"ar":290,"Ġc":291,"Ġf":292,"an":293,"Ġself":294,"at":295,"en":296,"ro":297,",\\":298,"Ġ\\\"":299,"as":300,"mp":301,"tion":302,"Ġre":303,"ur":304,"Ġth":305,"ge":306,"Ġp":307,"Ġn":308,"ce":309,"):\\":310,"ue":311,"Ġt":312,"Ġs":313,"el":314,"ame":315,"ing":316,"Ġin":317,"def":318,"--":319,"co":320,"ser":321,"ĠĠĠĠĠĠĠĠĠĠĠĠĠĠĠĠ":322,"ate":323,"Ġ#":324,"Ġo":325,"lo":326,"Ġthe":327,"',":328,"ct":329,"un":330,"fi":331,"li":332,"mo":333,"ri":334,"Ġd":335,"pe":336,"##":337,"Ġ(":338,"\\\\":339,"Ġb":340,"ra":341,"nt":342,"ex":343,"ch":344,"ut":345,"si":346,"Ġw":347,"Ġif":348,"\\\"\\\"":349,"ĠĠĠĠĠĠĠĠĠĠĠĠĠĠĠ":350,"ck":351,"Ġdef":352,"id":353,"ul":354,"name":355,"':":356,"ad":357,"urn":358,"turn":359,"ort":360,"ma":361,"ter":362,"ot":363,"di":364,"('":365,"get":366,"Ġ[":367,"__":368,"00":369,"Ġfor":370,"Ġis":371,"is":372,"Ġreturn":373,"val":374,"sert":375,"la":376,"one":377,"qu":378,"ty":379,"es":380,"up":381,".\\":382,"ol":383,"pa":384,"test":385,"eld":386,"Ġto":387,"set":388,"Ġan":389,"mport":390,"Ġ0":391,"ass":392,"con":393,"ĠT":394,"ed":395,"09":396,"]\\":397,"ata":398,"et":399,"----":400,"il":401,"Ġ1":402,"ction":403,"rom":404,"()\\":405,"it":406,"ss":407,"ver":408,"Ġh":409,"Ġ\\\"\\\"\\\"":410,"Ġ{":411,"rue":412,"ls":413,"None":414,"str":415,"))\\":416,"ke":417,"####":418,"Ġm":419,"ble":420,"vi":421,"ult":422,"),\\":423,"Ġcon":424,"int":425,"Ġof":426,"Ġas":427,"assert":428,"ve":429,"der":430,"==":431,"value":432,"Ġex":433,"mode":434,"ror":435,"gs":436,"tr":437,"du":438,"Ġu":439,"['":440,"ta":441,"),":442,"cl":443,"')\\":444,"he":445,"Ġco":446,"Ġnot":447,"']":448,"(\\\"":449,"and":450,"Ġ+":451,"Ġ-":452,"ment":453,"ation":454,"Ġ%":455,"ect":456,"pp":457,"._":458,"ption":459,"\\\"\\":460,"ile":461,"bj":462,"Ġand":463,"Ġimport":464,"to":465,"\\\",":466,"res":467,"ield":468,"Ġ\\":469,"ĠS":470,"um":471,"all":472,"ith":473,"sion":474,"ĠĠĠĠĠĠĠĠĠĠĠĠĠĠĠĠĠĠĠ":475,"from":476,"pro":477,"am":478,"ase":479,"Ġe":480,"par":481,"orm":482,"Ġtest":483,"age":484,"',\\":485,"ĠC":486,"file":487,"ent":488,"lin":489,"ted":490,"qual":491,"dule":492,"::":493,"Ġ==":494,"Ġ\\\"\\\"\\\"\\":495,"ĠP":496,"time":497,"Ġst":498,"ĠA":499,"ig":500,"key":501,"Ġel":502,"Ġde":503,"mple":504,"ho":505,"ĠNone":506,"end":507,"type":508,"True":509,"čĊ":510,"Ġ\"":511,"module":512,"xt":513,"ĠF":514,"path":515,"Ġg":516,"Ġ2":517,"Re":518,"pt":519,"In":520,"],":521,"Er":522,"po":523,"us":524,"Ġ_":525,"ew":526,"ub":527,"class":528,"'\\":529,"list":530,"alse":531,"Ġr":532,"ype":533,"()":534,"Ġ*":535,"len":536,"Ġres":537,"Error":538,"bject":539,"que":540,"ang":541,"nfrom":542,"Ġor":543,"Ġbe":544,"bu":545,"no":546,"Ġname":547,"='":548,"od":549,"fo":550,"args":551,"add":552,"text":553,"if":554,"Equal":555,"data":556,"ack":557,"ht":558,"\\\")\\":559,"per":560,"ault":561,"ise":562,"out":563,"sh":564,"app":565,"ance":566,"Ġlo":567,"put":568,"Ġthat":569,"Ġwith":570,"')":571,"ist":572,"field":573,"Ġse":574,"########":575,"--------":576,"sc":577,"unction":578,"Field":579,"tem":580,"Ġme":581,"form":582,"ze":583,"ER":584,"est":585,"=\\\"":586,"assertEqual":587,"\\\",\\":588,"models":589,"Ġelse":590,"able":591,"ly":592,"red":593,"ndef":594,"Ġ('":595,"Ġar":596,"py":597,"Ġvalue":598,"ĠI":599,"url":600,"ĠĠĠĠĠ":601,"ys":602,"ci":603,"Ġassert":604,"])\\":605,"tri":606,"ry":607,"Ġ:":608,"ango":609,"ange":610,"jango":611,"(\\":612,"db":613,"ĠD":614,"low":615,"mm":616,"do":617,"ns":618,"Ġfile":619,"code":620,"Ġ}":621,"Ġma":622,"fig":623,"\\\":":624,"ff":625,"date":626,"ask":627,"che":628,"art":629,"Ġdata":630,"Ġy":631,"093":632,"quest":633,"Ġpro":634,"ure":635,"Ġx":636,"our":637,"====":638,"ĠL":639,"mb":640,"reate":641,"rite":642,"wor":643,"ni":644,"ctor":645,"ca":646,"ĠM":647,"string":648,"Ġget":649,"comp":650,"rint":651,">>":652,"line":653,"ode":654,"ic":655,"Ġfunction":656,"Ġset":657,"Ġ3":658,"Ġv":659,"IN":660,").":661,"bo":662,"thod":663,"AT":664,"dd":665,"stance":666,"Ġ__":667,"Ġ{'":668,"ag":669,"dex":670,"user":671,"01":672,"ces":673,"thon":674,"rent":675,"fa":676,"Ġra":677,"late":678,"pon":679,"Ġ<":680,"cess":681,"Ġpar":682,"atch":683,"nclass":684,"Ġdi":685,"\\\"\\\"\\\"\\":686,"ĠE":687,"Ġen":688,"ĠĠĠĠĠĠĠĠĠĠĠĠĠĠĠĠĠĠĠĠĠĠĠĠĠĠĠĠĠĠĠĠ":689,"tp":690,"op":691,"Ġfrom":692,"Ġun":693,"Ġon":694,"\":":695,"pre":696,"[\\\"":697,"unt":698,"ĠTrue":699,"dir":700,"ator":701,"Ġdo":702,"ray":703,"ST":704,"pi":705,"ok":706,"fields":707,"pla":708,"tic":709,"Ġal":710,"sed":711,"object":712,"fe":713,"kw":714,"Ġac":715,"ponse":716,"min":717,"param":718,"read":719,"error":720,"roup":721,"Ġch":722,"cept":723,"ary":724,"ON":725,"nimport":726,"Ġos":727,"..":728,"ĠG":729,"ĠN":730,"ac":731,"Ġit":732,"ader":733,"append":734,"ne":735,"ĠĠĠĠĠĠĠĠĠĠĠĠĠĠĠĠĠĠĠĠĠĠĠ":736,"Ġ`":737,"Ġpa":738,"tent":739,"__(":740,"ext":741,"ild":742,"ĠĠĠĠĠĠĠĠĠĠĠĠĠĠĠĠĠĠ":743,"ython":744,"model":745,"Ġraise":746,"'}":747,"Ġwh":748,"ther":749,"jo":750,"Val":751,"om":752,"ĠB":753,"tes":754,"cted":755,"ip":756,"ĠFalse":757,"lic":758,"ans":759,"Con":760,"Ġout":761,"Ġresult":762,"False":763,"version":764,"Ġ)\\":765,"Ġtype":766,"ds":767,"092":768,"ml":769,"Ġthis":770,"Ġnp":771,"ir":772,"\\\"]":773,"scri":774,"04":775,"django":776,"ms":777,"ali":778,"qui":779,"uth":780,"Ġ[],":781,"RE":782,"Ġns":783,"os":784,"ab":785,"ave":786,"Ġat":787,"valid":788,"Test":789,"col":790,"wn":791,"([":792,"Ġwe":793,"Ġmo":794,"temp":795,"ĠU":796,"Ġcl":797,"Ġprint":798,"heck":799,"port":800,"son":801,"ource":802,"ress":803,"gin":804,"kwargs":805,"Ġby":806,"for":807,"gg":808,"ample":809,"ren":810,"ses":811,"vent":812,"ting":813,"tribu":814,"info":815,"ind":816,"und":817,"ĠĠĠĠĠĠĠĠĠĠĠĠĠĠĠĠĠĠĠĠĠĠĠĠ":818,"Ġlen":819,"mmand":820,"ten":821,"Ġtry":822,"ument":823,"vice":824,"():\\":825,"ĠRe":826,"format":827,"lab":828,"ĠW":829,"094":830,"LE":831,"lib":832,"**":833,"ĠO":834,"ssage":835,"try":836,"ome":837,"//":838,"ĠĠĠĠĠĠ":839,"Ġ@":840,"Ġmodule":841,"init":842,"Type":843,"umb":844,"ded":845,"ph":846,"dict":847,"Ġfield":848,"ĠThe":849,"Ġkey":850,"default":851,"max":852,"gth":853,"Ġlist":854,"lock":855,"ener":856,"base":857,"instance":858,"label":859,"Value":860,"Ġdefault":861,"method":862,"ception":863,"ler":864,"Ġexcept":865,"Ġfol":866,"ill":867,"ĠPython":868,"wa":869,"ark":870,"Ġare":871,"Ġtime":872,"lish":873,"Ġuser":874,"uld":875,"AL":876,"cal":877,"Ġ**":878,"ari":879,"da":880,"ore":881,".__":882,"vel":883,"tive":884,"10":885,"################":886,"join":887,"cur":888,"Ġ4":889,"back":890,"im":891,"atus":892,"ull":893,"Ch":894,"Ġ{\\":895,"Ġtask":896,"OR":897,"Ġnew":898,"size":899,"cation":900,"Ġpre":901,"urse":902,"ĠH":903,"ust":904,"umber":905,"comple":906,"lient":907,"Ġl":908,"count":909,"Ġro":910,"ters":911,"ery":912,"Ġcls":913,"Ġsho":914,"Ġfollow":915,"load":916,"Ġpass":917,"sp":918,"Ġ>":919,"ĠR":920,"Ġstr":921,"den":922,"attr":923,"Ġelif":924,"Ġle":925,"state":926,"ree":927,"32":928,"Ġpo":929,"json":930,"ET":931,"host":932,"index":933,"}\\":934,"ding":935,"pen":936,"ign":937,"config":938,"Ġhas":939,"create":940,"work":941,"Ġno":942,"ec":943,"start":944,"Ġ5":945,"----------------":946,"12":947,"Ġsi":948,"arn":949,"update":950,"uti":951,"EN":952,"sub":953,"IT":954,"mpt":955,"Ġfollowing":956,"Co":957,"64":958,"Ġsys":959,"com":960,"net":961,">>>":962,"De":963,"Ġcan":964,"Ġsup":965,"view":966,"array":967,"AR":968,"========":969,"ptions":970,"']\\":971,"ard":972,"group":973,"word":974,"ID":975,"Ġ\\\\":976,"Ke":977,"Ġobject":978,"Ġclass":979,"Write":980,"://":981,"pected":982,"Ex":983,"cor":984,"ou":985,"write":986,"ant":987,"prompt":988,"Ġ},":989,"ken":990,"'),\\":991,"his":992,"check":993,"ock":994,"by":995,"</":996,"Ġ,":997,"Ġform":998,"request":999,"arg":1000,"ime":1001,"mage":1002,"lit":1003,"Ġpath":1004,"completion":1005,"with":1006,"length":1007,"Ġcol":1008,"Ġk":1009,"Ġla":1010,"#\\":1011,"lement":1012,"Ġaccomp":1013,"Ġaccomplish":1014,"Ġ[]\\":1015,"\",":1016,"Ġaccomplishes":1017,"tain":1018,"main":1019,"Key":1020,"link":1021,"Ġ>>>":1022,"tra":1023,"Ġrequest":1024,"Ġwill":1025,"scription":1026,"log":1027,"unc":1028,"ute":1029,"Ġarg":1030,"ll":1031,"np":1032,"http":1033,"Ġint":1034,"mber":1035,">\\":1036,"core":1037,"stru":1038,"query":1039,"St":1040,"nd":1041,"loat":1042,"Ġ+=":1043,"Name":1044,"tings":1045,"Ġurl":1046,"tribute":1047,"Ġ\\\"\\\\":1048,"item":1049,"':\\":1050,"ated":1051,"'}),\\":1052,"],\\":1053,"Ġcheck":1054,"tself":1055,"DE":1056,"Ġhe":1057,"0000":1058,"Ġ['":1059,"Ġcomp":1060,"we":1061,"result":1062,"Ġline":1063,"15":1064,"ume":1065,"Set":1066,"Ġall":1067,"CT":1068,"Ġ##":1069,"sible":1070,"25":1071,"ape":1072,"nection":1073,"play":1074,"Ġsub":1075,"sent":1076,"Ġconst":1077,"md":1078,"ĠIn":1079,"reg":1080,"sing":1081,"'t":1082,"lan":1083,"ĠIf":1084,"arch":1085,"Ġshould":1086,"teg":1087,"Ġ/":1088,"iv":1089,"ulti":1090,"ude":1091,"Ġstring":1092,"ctory":1093,"gn":1094,"!=":1095,"ight":1096,"ĠX":1097,"quired":1098,"Ġadd":1099,"tle":1100,"ong":1101,"rect":1102,"Ġz":1103,"].":1104,"ash":1105,".\\\"\\\"\\\"\\":1106,"Ġuse":1107,"cs":1108,"ers":1109,"fix":1110,"arget":1111,"params":1112,"oo":1113,"not":1114,"Add":1115,"ration":1116,"new":1117,"lean":1118,"Ġdjango":1119,"spa":1120,"mail":1121,"lu":1122,"Ġcur":1123,"16":1124,"))":1125,"ine":1126,"())\\":1127,"Ġ!=":1128,"AN":1129,"Ġerror":1130,"ft":1131,"'):":1132,"auth":1133,"Ġnode":1134,"vir":1135,"SE":1136,"'),":1137,"led":1138,"inter":1139,"run":1140,"ises":1141,"parse":1142,"peci":1143,"node":1144,"place":1145,"utils":1146,"ĠThis":1147,"Ġmodels":1148,"ory":1149,"Ġapp":1150,"table":1151,"uto":1152,"pr":1153,"Ġser":1154,"ax":1155,"Pro":1156,"Ġne":1157,"gra":1158,"template":1159,"map":1160,"equal":1161,"'s":1162,"ap":1163,"mpty":1164,"Ġmodel":1165,"status":1166,"ĠTest":1167,"Ġfa":1168,"Ġresponse":1169,"lect":1170,"title":1171,"Ġsh":1172,"andom":1173,"tif":1174,"objects":1175,"ound":1176,"Get":1177,"Ġpy":1178,"Ġconfig":1179,"99":1180,"ream":1181,"ject":1182,"Lo":1183,"'])\\":1184,"Ġisinstance":1185,"message":1186,"response":1187,"rans":1188,"((":1189,"move":1190,"ĠĠĠĠĠĠĠĠĠĠĠĠĠĠĠĠĠĠĠĠĠĠĠĠĠĠĠ":1191,"ME":1192,"11":1193,"ts":1194,"ref":1195,"fil":1196,"02":1197,"andler":1198,"lated":1199,"IC":1200,"Ġ->":1201,"Ġcreate":1202,"Ġmethod":1203,"course":1204,"``":1205,"obj":1206,"At":1207,"(),":1208,"ite":1209,"ally":1210,"Se":1211,"Ġargs":1212,"sta":1213,"member":1214,"clo":1215,"stri":1216,"Time":1217,"Ġbu":1218,"ww":1219,"Ġhave":1220,"Ġ&":1221,"return":1222,"content":1223,"arning":1224,"Ġdate":1225,"input":1226,"row":1227,"ix":1228,"Char":1229,"ies":1230,"lete":1231,"pv":1232,"UT":1233,"Ġitem":1234,"Ġid":1235,"perty":1236,"Ġdis":1237,"Ġversion":1238,"tial":1239,"Ġj":1240,"sign":1241,"split":1242,"ak":1243,"rc":1244,"Ġstate":1245,"mark":1246,"Ġother":1247,"):":1248,"pri":1249,"'):\\":1250,"UR":1251,"().":1252,"Ġ``":1253,"ich":1254,"man":1255,"command":1256,"av":1257,"html":1258,"Ġrun":1259,"Ġso":1260,"tifi":1261,"Ġoutput":1262,"ttp":1263,"ĠV":1264,"'],":1265,"200":1266,"rame":1267,"Ġreg":1268,"pack":1269,"be":1270,"change":1271,"tro":1272,"lay":1273,"mis":1274,"msg":1275,"idget":1276,"yn":1277,"Ra":1278,"lines":1279,"ach":1280,"'.":1281,"Ġbase":1282,"td":1283,"Ġmessage":1284,"client":1285,"[:":1286,"gger":1287,"tin":1288,"uni":1289,"ual":1290,"cre":1291,"Ġrange":1292,"ValueError":1293,"File":1294,"Mode":1295,"Ġexpected":1296,"Ġ.":1297,"Ġbo":1298,"nel":1299,"tern":1300,"teger":1301,"ĠEx":1302,"eta":1303,"Ġ\\\\\\":1304,"umn":1305,"Ġmax":1306,"ost":1307,"Ġnumber":1308,"ay":1309,"Case":1310,"Ġdict":1311,"mit":1312,"zer":1313,"30":1314,"Ġ}\\":1315,"ps":1316,"vo":1317,"use":1318,"Ġused":1319,"SS":1320,"Ġcode":1321,"ticle":1322,"34":1323,"Ġparam":1324,"pecifi":1325,"page":1326,"Res":1327,"sg":1328,"List":1329,"TE":1330,"ION":1331,"ght":1332,"Ġli":1333,"point":1334,"Ġwor":1335,"sys":1336,"bs":1337,"\\\")":1338,"root":1339,"tring":1340,"uple":1341,"19":1342,"face":1343,"ariable":1344,"''":1345,"lat":1346,"process":1347,"Ġindex":1348,"AP":1349,"Ġ',":1350,"option":1351,"dis":1352,"})\\":1353,"network":1354,"Ġinstance":1355,"call":1356,"Fa":1357,"ĠĠĠĠĠĠĠĠĠ":1358,"Ġarray":1359,"Ġbut":1360,"lank":1361,"'))\\":1362,"Ġsu":1363,"mbda":1364,"feren":1365,"ump":1366,"space":1367,"Ġopen":1368,"ures":1369,"22":1370,"foo":1371,"36":1372,"ep":1373,"CharField":1374,";\\\":":1375,"RO":1376,"orted":1377,"Ġtext":1378,"TER":1379,"men":1380,"IG":1381,"fail":1382,"Data":1383,"atri":1384,"ner":1385,"Di":1386,"Ġge":1387,"dent":1388,"Ġend":1389,"Ġper":1390,"output":1391,"Ġstart":1392,"filter":1393,"std":1394,"context":1395,"num":1396,"Ġca":1397,"Par":1398,"AC":1399,"ĠCon":1400,"tag":1401,"vide":1402,"Ġoption":1403,"Ġsuper":1404,"find":1405,"Address":1406,"lection":1407,"Ġ'\\":1408,"Raises":1409,"To":1410,"so":1411,"rid":1412,"Ġvalues":1413,"Ġver":1414,"Ġformat":1415,"sition":1416,"names":1417,"ometry":1418,"pass":1419,"\\\":\\":1420,"ee":1421,"Ġlog":1422,"Ġlevel":1423,"Id":1424,"Ġdescription":1425,"CO":1426,"20":1427,"ameters":1428,"Ġone":1429,"Ġ6":1430,"Ġdist":1431,"Ġany":1432,"40":1433,"block":1434,"0930":1435,"Po":1436,"Ġwhich":1437,"pec":1438,"assertRaises":1439,"cate":1440,"elp":1441,"(*":1442,"dit":1443,"ody":1444,"Ġcontent":1445,"coding":1446,"lot":1447,"ity":1448,"ware":1449,"Ġwhen":1450,"Ġargument":1451,"header":1452,"func":1453,"ĠReturn":1454,"doc":1455,"meta":1456,"org":1457,"cri":1458,"lable":1459,"sions":1460,"close":1461,"var":1462,"filename":1463,"Ġ..":1464,"irst":1465,"ess":1466,"Ġcommand":1467,"su":1468,"structor":1469,"action":1470,"match":1471,"ING":1472,"Base":1473,"bug":1474,"ccess":1475,"values":1476,"Ġcontext":1477,"67":1478,"Ġonly":1479,"atrix":1480,"api":1481,"ature":1482,"bin":1483,"Ġinput":1484,"its":1485,"trans":1486,"Ġmatch":1487,"Un":1488,"Ġobj":1489,"sets":1490,"Ġ8":1491,"000":1492,"pts":1493,"tributes":1494,"ocket":1495,"admin":1496,"Model":1497,"lugin":1498,"err":1499,"mary":1500,"ld":1501,"pos":1502,"import":1503,"related":1504,"order":1505,"Ġvalid":1506,"Ġ|":1507,"Ġcurrent":1508,"onent":1509,"lob":1510,"Ġ10":1511,"TestCase":1512,"ols":1513,"event":1514,"shape":1515,"Ġfilename":1516,"const":1517,"][":1518,"iter":1519,"Ġ(\\":1520,"store":1521,"token":1522,"Ġrequired":1523,"iali":1524,"cache":1525,"clude":1526,"settings":1527,"amples":1528,"35":1529,"DO":1530,"Ġ'%":1531,"17":1532,"ister":1533,"open":1534,"iven":1535,"post":1536,"Ġcal":1537,"Ġ{}\\":1538,"({":1539,"any":1540,"lation":1541,"Ġup":1542,"Ser":1543,"idth":1544,"ain":1545,"User":1546,"types":1547,"Ipv":1548,"ton":1549,"Ġcourse":1550,"Ġmark":1551,"Ġinter":1552,"14":1553,"Ġtra":1554,"Ġchange":1555,"ear":1556,"quen":1557,"pk":1558,"LO":1559,"=[":1560,"AB":1561,"Ġpack":1562,"ffer":1563,"En":1564,"CH":1565,"ND":1566,"Text":1567,"ager":1568,"HT":1569,"conn":1570,"ublic":1571,"88":1572,"################################":1573,"are":1574,"Ġdoes":1575,"als":1576,"Ġad":1577,"dow":1578,"Si":1579,"Ġsize":1580,"datetime":1581,"options":1582,"Ġtrans":1583,"ense":1584,"les":1585,"indow":1586,"Ġspecifi":1587,"ai":1588,"iz":1589,"Ġax":1590,"ĠAn":1591,"Ġread":1592,"Ġmsg":1593,"])":1594,"UL":1595,"ĠĠĠĠĠĠĠĠĠĠĠĠĠ":1596,"Ġevent":1597,"bar":1598,"ments":1599,"float":1600,"Ġ(\\\"":1601,"ĠĠĠĠĠĠĠĠĠĠ":1602,"13":1603,"ations":1604,"has":1605,"char":1606,"MP":1607,"ittest":1608,"here":1609,"Ġmust":1610,"raw":1611,"child":1612,"\\\".":1613,"ow":1614,"assertTrue":1615,"Ġhttp":1616,"Ġmin":1617,"ify":1618,"ĠQ":1619,"ready":1620,"Ġuni":1621,"ors":1622,"AG":1623,"blank":1624,"Ġyou":1625,"Ġmock":1626,"null":1627,"ists":1628,"Ar":1629,"Do":1630,"Ġquery":1631,"fir":1632,"rectory":1633,"Ġ},\\":1634,"PE":1635,"ties":1636,"Ġfirst":1637,"copy":1638,"Form":1639,"iled":1640,"================":1641,"ĠCo":1642,"Ġgener":1643,"Ġdoc":1644,"ĠĠĠĠĠĠĠĠĠĠĠĠ":1645,"Ġgroup":1646,"session":1647,"nif":1648,"\\\"),\\":1649,"Ġ[\\":1650,"Ġ--":1651,"62":1652,"Ġback":1653,"Ġcontain":1654,"33":1655,"ĠDe":1656,"ENT":1657,"-\\":1658,"property":1659,"Ġ'\\\\":1660,"source":1661,"location":1662,"Ġtoken":1663,"ML":1664,"ql":1665,"empty":1666,"IO":1667,"ĠValueError":1668,"keys":1669,"No":1670,"viron":1671,"range":1672,"oreign":1673,"image":1674,"ference":1675,"exec":1676,"Ġdb":1677,"Ġcall":1678,"65":1679,"'],\\":1680,"adata":1681,"ie":1682,"utf":1683,"ste":1684,"kip":1685,"og":1686,"IL":1687,"Ġgiven":1688,"TP":1689,"tdc":1690,"fore":1691,"xml":1692,"right":1693,"Not":1694,"AD":1695,"gging":1696,"Ftdc":1697,"ini":1698,"hostFtdc":1699,"save":1700,"my":1701,"Ġ{}":1702,"AS":1703,"String":1704,"Ġheader":1705,"stall":1706,"target":1707,"lt":1708,"task":1709,"Up":1710,"wer":1711,"delete":1712,"andle":1713,"18":1714,"trol":1715,"PO":1716,"unk":1717,"files":1718,"umpy":1719,"ATE":1720,"ran":1721,"ont":1722,"Ġfields":1723,"comm":1724,"python":1725,"Ġoptions":1726,"Ġq":1727,"old":1728,"NA":1729,"The":1730,"Ġparent":1731,"current":1732,"Ġ7":1733,"address":1734,"--------------------------------":1735,"HO":1736,"uration":1737,"ync":1738,"function":1739,"Ġlabel":1740,"Attribute":1741,"Ġgeometry":1742,"Ġfiles":1743,"items":1744,"ous":1745,"Ġexp":1746,"cy":1747,"cord":1748,"verse":1749,"100":1750,"'\\\\":1751,"cho":1752,"ĠJ":1753,"exp":1754,"Ġmode":1755,"ved":1756,"down":1757,"24":1758,"Tag":1759,"the":1760,"ice":1761,"Ġdatetime":1762,"oly":1763,"asses":1764,"swith":1765,"fter":1766,"Ġroot":1767,"ick":1768,"mation":1769,"how":1770,"sup":1771,"50":1772,"reak":1773,"={":1774,"cls":1775,"Ġ\\\"\\":1776,"201":1777,"CThostFtdc":1778,"\\\">":1779,"box":1780,"Ġkwargs":1781,"tity":1782,"replace":1783,"inal":1784,"Ġfloat":1785,"Ġattr":1786,"rate":1787,"xx":1788,".,":1789,"bose":1790,"Ġorder":1791,"oreignKey":1792,";\\":1793,"parent":1794,"0928":1795,"ell":1796,"server":1797,"other":1798,"FI":1799,"Ġyield":1800,"script":1801,"req":1802,"print":1803,"icense":1804,"Ġneed":1805,"now":1806,"Ġaction":1807,"tinue":1808,"Ġ[\\\"":1809,"Ġalready":1810,"Ġover":1811,"Ġsettings":1812,"ote":1813,"ract":1814,"(_":1815,"ped":1816,"Ġ''":1817,"Ġupdate":1818,"annel":1819,"password":1820,"cmd":1821,"site":1822,"stream":1823,"of":1824,"Ġcor":1825,"search":1826,"level":1827,"cond":1828,"tail":1829,"Ġchar":1830,"atures":1831,"Ġmake":1832,"description":1833,"ĠReturns":1834,"Ġ\"#":1835,"Cl":1836,"uid":1837,"Vi":1838,"03":1839,"ion":1840,"strip":1841,"project":1842,"Ġhost":1843,"ETTER":1844,"sy":1845,"DI":1846,"trib":1847,"particle":1848,"ĠLETTER":1849,"Ġconnection":1850,"Ġsource":1851,"78":1852,"ast":1853,"Ġjson":1854,"igration":1855,"Ġwhile":1856,"\\\"]\\":1857,"Ġwork":1858,"Pa":1859,"tdef":1860,"Ġsy":1861,"last":1862,"dia":1863,"Date":1864,"gh":1865,"Object":1866,"Ġusing":1867,"exten":1868,"tk":1869,"uint":1870,"ating":1871,"Exception":1872,"[-":1873,"present":1874,"dition":1875,"sor":1876,"Ġcopy":1877,"conf":1878,"Mo":1879,"cript":1880,"nCThostFtdc":1881,"tadata":1882,"video":1883,"email":1884,"Ġimage":1885,")))\\":1886,"sum":1887,"ĠLicense":1888,"Ġdif":1889,"ĠY":1890,"Ġelement":1891,"build":1892,"compile":1893,"Ġparser":1894,"mon":1895,"Ġblock":1896,"Config":1897,"Ġauth":1898,"bi":1899,"connection":1900,"Ġhelp":1901,"mi":1902,"otal":1903,"Ġdtype":1904,"debug":1905,"Ġcmd":1906,"ices":1907,"env":1908,"ched":1909,"75":1910,"lease":1911,"043":1912,"igh":1913,"pect":1914,"year":1915,"stack":1916,"ForeignKey":1917,"Ġcontinue":1918,"www":1919,"exception":1920,"ats":1921,"okup":1922,"ids":1923,"vert":1924,").\\":1925,"Ġpage":1926,"xc":1927,"virt":1928,"Ġpri":1929,"Ġ]\\":1930,"\\\\\\":1931,"ake":1932,"wo":1933,"local":1934,"Ġeach":1935,"Ġval":1936,"Ġclient":1937,"Node":1938,"random":1939,"Is":1940,"utton":1941,"Ġsign":1942,"0915":1943,"Ġlambda":1944,"US":1945,"ule":1946,"ful":1947,"66":1948,"Check":1949,"pping":1950,"Ġmore":1951,"Ġtable":1952,"Ġparams":1953,"ES":1954,"05":1955,"Ġtarget":1956,"sa":1957,"ĠĠĠĠĠĠĠĠĠĠĠĠĠĠĠĠĠĠĠĠĠĠĠĠĠĠĠĠĠĠĠ":1958,"Ġpart":1959,"expected":1960,"number":1961,"Ġtuple":1962,"xy":1963,"username":1964,"direct":1965,"Return":1966,"State":1967,"Ġresults":1968,"Integer":1969,"void":1970,"off":1971,"Ġcase":1972,"Ġlast":1973,"uage":1974,"pper":1975,"Ġses":1976,"fault":1977,"ĠWe":1978,"').":1979,"****":1980,"mal":1981,"anguage":1982,"Ġ'''\\":1983,"42":1984,"lication":1985,"Ġrandom":1986,"Item":1987,"Dict":1988,"IP":1989,"ĠĠĠĠĠĠĠĠĠĠĠĠĠĠĠĠĠ":1990,"OT":1991,"remove":1992,"uture":1993,"Ġwas":1994,"fla":1995,"Ġ9":1996,"Ġview":1997,"_.":1998,"ush":1999,"51":2000,"thing":2001,"0938":2002,"ameter":2003,"older":2004,"gener":2005,"Ġsome":2006,"CON":2007,"Ġpoint":2008,"Ġtag":2009,"element":2010,"Ġstatus":2011,"ĠĠĠĠĠĠĠĠĠĠĠĠĠĠ":2012,"lta":2013,"cc":2014,"Valid":2015,"Ġallow":2016,"Ġlink":2017,"libr":2018,"quire":2019,"Ġfound":2020,"Ġ\\\"%":2021,"','":2022,"constructor":2023,"first":2024,")\"":2025,"essage":2026,"mock":2027,"can":2028,"prefix":2029,"Bo":2030,"Ġmay":2031,"Ġextra":2032,"handler":2033,"lity":2034,"Ġinto":2035,"Ġtemplate":2036,"Ġcho":2037,"assi":2038,"top":2039,"28":2040,"ord":2041,"cen":2042,"mt":2043,"alize":2044,"Ġ'.":2045,"(?":2046,"Ġmarker":2047,"ui":2048,"KE":2049,"select":2050,"Ġchild":2051,"ailable":2052,"Ġfe":2053,"Ġsp":2054,"cer":2055,"Ġsession":2056,"Ġfil":2057,"Ġ\\\"\\\",\\":2058,"book":2059,"lobal":2060,"body":2061,"Ġthen":2062,"df":2063,"ression":2064,"ultip":2065,"pop":2066,"MA":2067,"Ġoff":2068,"cle":2069,"frame":2070,"resh":2071,"nown":2072,"abs":2073,"struct":2074,"latform":2075,"NAME":2076,"Ġexist":2077,"Ġaxis":2078,"ive":2079,"abled":2080,"Qu":2081,"Ġoper":2082,"PER":2083,"ng":2084,"Me":2085,"Ġgra":2086,"quence":2087,"Ġrow":2088,"ates":2089,"Ġbreak":2090,"service":2091,"37":2092,"color":2093,"ined":2094,"elper":2095,"round":2096,"ĠGener":2097,"68":2098,"gex":2099,"exit":2100,"rou":2101,"less":2102,"59":2103,"Ġexception":2104,"Ġ-*":2105,"yle":2106,")):\\":2107,"Ġpassword":2108,"CE":2109,"ative":2110,"Ġsame":2111,"formation":2112,"changed":2113,"29":2114,"oolean":2115,"Ġload":2116,"only":2117,"Ġprocess":2118,"argument":2119,"'].":2120,"Ġte":2121,"TY":2122,"48":2123,"60":2124,"ustom":2125,"duct":2126,"PI":2127,"\\\"))\\":2128,"Ġsee":2129,"]:\\":2130,"ĠĠĠĠĠĠĠĠĠĠĠĠĠĠĠĠĠĠĠĠĠĠĠĠĠ":2131,".\\\"\\":2132,"ĠPar":2133,"section":2134,"><":2135,"connect":2136,"Ġ>=":2137,"dtype":2138,"Ġpos":2139,"ĠĠĠĠĠĠĠĠĠĠĠĠĠĠĠĠĠĠĠĠĠ":2140,"most":2141,"parser":2142,"cr":2143,"mask":2144,"olume":2145,"ĠAnsible":2146,"Ġnon":2147,"View":2148,"Ġop":2149,"vider":2150,")),\\":2151,"(-":2152,"wh":2153,"Col":2154,"Bu":2155,"Event":2156,"allback":2157,"Ġbool":2158,"ution":2159,"Ġshow":2160,"URL":2161,"Ġdevice":2162,"norm":2163,"ven":2164,"ef":2165,"mote":2166,"Ġpackage":2167,"Info":2168,"ud":2169,"\\\"),":2170,"nT":2171,"Ġvi":2172,"55":2173,"make":2174,"auto":2175,"encode":2176,"Ġtemp":2177,"']['":2178,"hash":2179,"Ġlogging":2180,"required":2181,"oper":2182,"tocol":2183,"Ġvariable":2184,"chema":2185,"cli":2186,"></":2187,"ribu":2188,"rap":2189,"39":2190,"ĠĠĠĠĠĠĠĠĠĠĠĠĠĠĠĠĠĠĠĠ":2191,"Ptr":2192,"Ġnumpy":2193,"static":2194,"Ġdest":2195,"lower":2196,"width":2197,"Ġerr":2198,"ĠUser":2199,"Ġ'/":2200,"27":2201,"ĠException":2202,"cale":2203,"'})\\":2204,"component":2205,"Ġ--------":2206,"plot":2207,"Ġspecified":2208,"ati":2209,"termin":2210,"{}":2211,"ALL":2212,"day":2213,"TR":2214,"Ġnext":2215,"07":2216,"show":2217,"send":2218,"zed":2219,"Ġfind":2220,"ED":2221,"dist":2222,"treturn":2223,"device":2224,"\\\"\\\"\\\"":2225,"Index":2226,"Ġren":2227,"arnings":2228,"rf":2229,"mission":2230,")]\\":2231,"Ġreturned":2232,"over":2233,"Ġparse":2234,"ride":2235,"Ġnames":2236,"08":2237,"queue":2238,"Ġcount":2239,"Message":2240,"Ġlogger":2241,"Ġsupport":2242,"Ġfin":2243,"attern":2244,"virtual":2245,"},\\":2246,"('/":2247,"\\\"):\\":2248,"44":2249,"')])\\":2250,"Ġserver":2251,"src":2252,"Ġdirectory":2253,"sit":2254,"stal":2255,"Ġman":2256,"setup":2257,":`":2258,"Ġinfo":2259,"53":2260,"stdout":2261,"ale":2262,"orage":2263,"div":2264,"Ġnum":2265,"unique":2266,"Ġmain":2267,"ators":2268,"gine":2269,"NU":2270,"Ġdir":2271,"ources":2272,"bool":2273,"Ġab":2274,"patch":2275,"Ġexec":2276,"Ġconn":2277,"Ġvo":2278,"true":2279,"Ġav":2280,"primary":2281,"display":2282,"ning":2283,"Ġold":2284,"ki":2285,"startswith":2286,"package":2287,"contrib":2288,"gen":2289,"Ġ'-":2290,"ublish":2291,"Ġpython":2292,"_,":2293,"gor":2294,"Or":2295,"ntry":2296,"Response":2297,"rt":2298,"Ġgetattr":2299,"fied":2300,"ĠK":2301,"EX":2302,"FF":2303,"tical":2304,"By":2305,"web":2306,"\\\\\\\\":2307,"spec":2308,"Ġthere":2309,"mented":2310,"samples":2311,"side":2312,"ported":2313,"emp":2314,"LI":2315,"Request":2316,"ĠType":2317,"Ver":2318,"clean":2319,"Content":2320,"her":2321,"ĠSee":2322,"ek":2323,"He":2324,"Tra":2325,"ĠHT":2326,"column":2327,"cf":2328,"environ":2329,"Ġhasattr":2330,"Ġnorm":2331,"ĠCheck":2332,"next":2333,"util":2334,"UN":2335,"ba":2336,"Ġorig":2337,"Ġthan":2338,"23":2339,"FA":2340,"wait":2341,"ĠPro":2342,"ORM":2343,"Ġini":2344,"Class":2345,"exists":2346,"uct":2347,"fit":2348,"Ġattribute":2349,"ctionary":2350,"loc":2351,"andard":2352,"nore":2353,"xe":2354,"Ġentry":2355,"Ġoutfile":2356,"Ġoptional":2357,"Ġstd":2358,"Meta":2359,"89":2360,"udent":2361,"UP":2362,"tests":2363,"]))\\":2364,"fer":2365,"headers":2366,"fin":2367,"ĠAr":2368,"derr":2369,"xa":2370,"gment":2371,"aster":2372,"etch":2373,"Element":2374,"blem":2375,"lambda":2376,"Ġcache":2377,"IntegerField":2378,"Ġlocal":2379,"uster":2380,"licy":2381,"FT":2382,"Ġnet":2383,"Ġport":2384,"Ġbuild":2385,"outfile":2386,"io":2387,"--\\":2388,"Ġlines":2389,"entry":2390,"repr":2391,"Al":2392,"Ġfunc":2393,"tree":2394,"rapper":2395,"vate":2396,"Count":2397,"like":2398,"&#":2399,"ĠĠĠĠĠĠĠĠĠĠĠĠĠĠĠĠĠĠĠĠĠĠĠĠĠĠĠĠ":2400,"ĠSt":2401,"active":2402,"ĠĠĠĠĠĠĠĠĠĠĠĠĠĠĠĠĠĠĠĠĠĠ":2403,"Ġunicode":2404,"Ġfla":2405,"Ġsample":2406,"roll":2407,"lected":2408,"Ġnull":2409,"ULT":2410,"Ġthread":2411,"Handler":2412,"dle":2413,"Ġ'<":2414,"job":2415,"unittest":2416,"cimal":2417,"system":2418,"part":2419,"axis":2420,"zone":2421,"clu":2422,"...":2423,"ATIN":2424,"tools":2425,"TO":2426,"mod":2427,"plugin":2428,"Ġwhere":2429,"Ġtests":2430,"77":2431,"xb":2432,"XX":2433,"pha":2434,"okie":2435,"Ġencoding":2436,"umns":2437,"Ġarguments":2438,"Ġimple":2439,"'},\\":2440,"https":2441,"txt":2442,"alog":2443,"cope":2444,"KEY":2445,"tmp":2446,"ingle":2447,"091":2448,"features":2449,"results":2450,"Ġ<=":2451,"2001":2452,"Path":2453,"math":2454,"']:\\":2455,":%":2456,"Ġafter":2457,"ĠLATIN":2458,"war":2459,"library":2460,"errors":2461,"Ġobjects":2462,"cessed":2463,"ultiple":2464,"login":2465,"delta":2466,"21":2467,")[":2468,"iddle":2469,"abc":2470,"({'":2471,"Ġauto":2472,"Ġerrors":2473,"na":2474,"stamp":2475,"_(":2476,"(),\\":2477,"Ġret":2478,"Ġcom":2479,"diff":2480,"install":2481,"groups":2482,"Auto":2483,"xf":2484,"Ġ200":2485,"0939":2486,"Module":2487,"Ġcomm":2488,"Ġfail":2489,"Ġshape":2490,"fs":2491,"Ġ...":2492,"Ġimp":2493,"Ġnamespace":2494,"render":2495,"Ġqu":2496,"Ġ\\\"'":2497,"dentifi":2498,"Ġdisplay":2499,"tificate":2500,"ular":2501,"ourse":2502,"non":2503,"ternal":2504,"SI":2505,"ither":2506,"95":2507,"INE":2508,"tex":2509,"contain":2510,"Group":2511,"bit":2512,"'''\\":2513,"VER":2514,"Pack":2515,"classes":2516,"bytes":2517,"left":2518,"06":2519,"ĠGet":2520,"layer":2521,"Ġregister":2522,"widget":2523,"Ġsetup":2524,"asic":2525,"Ġtitle":2526,"register":2527,"Ġempty":2528,"dest":2529,"future":2530,"domain":2531,"Ġbytes":2532,"idx":2533,"assertEquals":2534,"Ns":2535,"RL":2536,"Callback":2537,"sitive":2538,"ĠNot":2539,"stop":2540,"extra":2541,"Ġhere":2542,"Factory":2543,"Ġuti":2544,"ish":2545,"MO":2546,"nan":2547,"ling":2548,"Ġaccess":2549,"example":2550,"Ġ{\\\"":2551,"conds":2552,"Ġpost":2553,"Ġunder":2554,"45":2555,"skip":2556,"ves":2557,"Net":2558,"Ġyour":2559,"stract":2560,"vision":2561,"position":2562,"38":2563,"Size":2564,"=['":2565,"Ġparameters":2566,"unicode":2567,"sen":2568,"dump":2569,"ĠSet":2570,"marker":2571,"train":2572,"decode":2573,"execute":2574,"Inter":2575,"Ġ),\\":2576,"Ġreturns":2577,"Ġhash":2578,"Ġdel":2579,"Ġbefore":2580,"Ġcomple":2581,"Ġclo":2582,"Ġlong":2583,"rs":2584,"lector":2585,"fy":2586,"timeout":2587,"Default":2588,"Per":2589,"loader":2590,"access":2591,"=(":2592,"ĠCreate":2593,"Ġsocket":2594,"Ġvoid":2595,"ĠĠĠĠĠĠĠĠĠĠĠĠĠĠĠĠĠĠĠĠĠĠĠĠĠĠĠĠĠĠĠĠĠĠĠ":2596,"Ġsa":2597,"Ġdon":2598,"ĠData":2599,"ea":2600,"uble":2601,"flow":2602,"ink":2603,"0924":2604,"Ac":2605,"Ġverbose":2606,"river":2607,"pc":2608,"wise":2609,"Ġfalse":2610,"cast":2611,"sort":2612,"ĠID":2613,"ATA":2614,"fd":2615,"vices":2616,"Ġunittest":2617,"cts":2618,"graph":2619,"pace":2620,"Ġdistribu":2621,"gory":2622,"rough":2623,"RA":2624,"ared":2625,"QL":2626,"Man":2627,")/":2628,"ker":2629,"wit":2630,"~~":2631,"sentry":2632,"lug":2633,"missions":2634,"tails":2635,"Ġsta":2636,"coun":2637,"multi":2638,"raises":2639,"ATER":2640,"DateTime":2641,"Ġalso":2642,"dices":2643,"Ġmeta":2644,"very":2645,"Action":2646,"tel":2647,"Create":2648,"uff":2649,"zip":2650,"ĠCh":2651,"cause":2652,"rel":2653,"Many":2654,"weight":2655,"MS":2656,"Ġstream":2657,"ĠFor":2658,"pl":2659,"Ġdatabase":2660,"Ġremove":2661,"imum":2662,"invalid":2663,"iddleware":2664,"Ġprefix":2665,"Pre":2666,"Ġresource":2667,"manager":2668,"Ġheaders":2669,"dered":2670,"49":2671,"dot":2672,"Ġproject":2673,"vm":2674,"tags":2675,"gram":2676,"MM":2677,"idden":2678,"igrations":2679,"Ġta":2680,"br":2681,").__":2682,"reen":2683,"ĠPublic":2684,"=%":2685,"olve":2686,"edge":2687,"IS":2688,"olute":2689,"metadata":2690,"Ġwithout":2691,"(['":2692,"Ġwrite":2693,"Ġsystem":2694,"Ġact":2695,"exc":2696,"Ġlength":2697,"Ġzip":2698,"Ġrelated":2699,"metri":2700,"Ġref":2701,"author":2702,"ason":2703,"Input":2704,"Ġtrue":2705,"Ġemail":2706,"80":2707,"bb":2708,"Ġexten":2709,".\\\")\\":2710,"Ġ'--":2711,"WATER":2712,"score":2713,"Ġsearch":2714,"EL":2715,"Ġag":2716,";&#":2717,"act":2718,"lied":2719,"cul":2720,"encoding":2721,"ĠĠĠĠĠĠĠĠĠĠĠĠĠĠĠĠĠĠĠĠĠĠĠĠĠĠ":2722,"Widget":2723,"game":2724,"HOST":2725,"Ġbin":2726,"resource":2727,"tuple":2728,"full":2729,"/%":2730,"56":2731,"Ġbody":2732,"ĠAt":2733,"As":2734,"Ġtwo":2735,"Child":2736,"Ġwidget":2737,"Comp":2738,"css":2739,"ants":2740,"opts":2741,"wd":2742,"Ġbet":2743,"Ġbeen":2744,"yearly":2745,"NO":2746,"js":2747,"orig":2748,"thread":2749,"ends":2750,"Ġcolumn":2751,"ait":2752,"wi":2753,"ince":2754,"LND":2755,"mbol":2756,"1951":2757,"ĠZ":2758,"HTTP":2759,"Ġcorrect":2760,"DB":2761,"()\"":2762,"TEST":2763,"ĠGeneral":2764,"tered":2765,"olution":2766,"annot":2767,"ĠLo":2768,"Ġits":2769,"insert":2770,"Imple":2771,"tx":2772,"QU":2773,"Ġ''\\":2774,"ĠĠĠĠĠĠĠĠĠĠĠĠĠĠĠĠĠĠĠĠĠĠĠĠĠĠĠĠĠĠ":2775,"cp":2776,"hi":2777,"Ġ'__":2778,"points":2779,"ĠImport":2780,"OL":2781,"Ġ'_":2782,"Ġlocation":2783,"abel":2784,"cry":2785,"\\\"}":2786,"Ġaddress":2787,"raint":2788,"ries":2789,"Ref":2790,"Tests":2791,"Ġavailable":2792,"]+":2793,"ĠGNU":2794,"Ġig":2795,"xd":2796,"real":2797,"matrix":2798,"SC":2799,"aded":2800,"ases":2801,"Ġeither":2802,"Auth":2803,"allow":2804,"Ġdoesn":2805,"offset":2806,"Ġfilter":2807,"Ġsave":2808,"Ġoffset":2809,"atter":2810,"export":2811,"Parser":2812,"Ġxml":2813,"extend":2814,"TYPE":2815,"Ġmatrix":2816,"assed":2817,"Device":2818,"TypeError":2819,"Ġcolor":2820,"Ġinterface":2821,"\\\"],":2822,"Ġ_(\\\"":2823,"Ġtimeout":2824,"57":2825,"Ġ100":2826,"Ġservice":2827,"argv":2828,"ĠAdd":2829,"rop":2830,"utable":2831,"Th":2832,"Ġreq":2833,"components":2834,"esca":2835,"variable":2836,"Ġim":2837,"ialize":2838,"mer":2839,"ftware":2840,"trols":2841,"Ġrender":2842,"Out":2843,"oto":2844,"sample":2845,"ĠString":2846,"height":2847,"grid":2848,"sql":2849,"Ġ'''":2850,"ĠIt":2851,"board":2852,"\\\"],\\":2853,"AutoField":2854,"Reg":2855,"26":2856,"Ġvideo":2857,"Ġcreated":2858,"Ġstruct":2859,"stead":2860,"Ġutf":2861,"Ġ#\\":2862,"OS":2863,"Ġweb":2864,"Ġcer":2865,"usr":2866,"From":2867,"Ġinclude":2868,"channel":2869,"An":2870,"Ġraw":2871,"messages":2872,"Ġmask":2873,"\\\"].":2874,"assifi":2875,"keep":2876,"Ġchanged":2877,"Ġsure":2878,"ĠĠĠĠĠĠĠĠĠĠĠĠĠĠĠĠĠĠĠĠĠĠĠĠĠĠĠĠĠ":2879,"zz":2880,"Ġenv":2881,"methods":2882,"Ġnow":2883,"FAULT":2884,"Ġsuccess":2885,"assertFalse":2886,"Simple":2887,"fn":2888,"cent":2889,"ĠKey":2890,"ĠSM":2891,"perties":2892,"Ġattrs":2893,"Ġchoices":2894,"Ġiter":2895,"Ġmodi":2896,"Ġali":2897,"[:,":2898,"Ġass":2899,"Ġfull":2900,"ĠURL":2901,"Packet":2902,"ĠSe":2903,"vars":2904,"win":2905,"limit":2906,"FILE":2907,"comment":2908,"Ġcharac":2909,"au":2910,"Err":2911,"Ġpytest":2912,"PAT":2913,"ixin":2914,"logger":2915,"TypeId":2916,"Boolean":2917,"ical":2918,"ĠNo":2919,"Ġcoding":2920,"tz":2921,"OK":2922,"Trans":2923,"dentifier":2924,"For":2925,"sq":2926,"Ġjust":2927,"SON":2928,"lice":2929,"Ġstack":2930,"Query":2931,"(\\\"%":2932,"DateTimeField":2933,"CK":2934,"Run":2935,"TH":2936,"_)\\":2937,"ATION":2938,"ward":2939,"gle":2940,"\\\").":2941,"Des":2942,"mory":2943,"vector":2944,"Ġbecause":2945,"Ġparameter":2946,"ways":2947,"profile":2948,"Result":2949,"flags":2950,"nk":2951,"Ġwarnings":2952,"tep":2953,"dev":2954,"Ġipv":2955,"Sub":2956,"ĠIN":2957,"Ġlimit":2958,"Ġansible":2959,"Ġhandle":2960,"ization":2961,"%(":2962,"bl":2963,"entic":2964,"Ġwant":2965,"Client":2966,"Ġdictionary":2967,"uri":2968,"')],":2969,"\\\"])\\":2970,"Ġabs":2971,"imator":2972,"sv":2973,"vious":2974,"ero":2975,"Ġkeys":2976,"callback":2977,"Ġright":2978,"]['":2979,"Frame":2980,"alias":2981,"Ġcre":2982,"sis":2983,")),":2984,"attrs":2985,"processed":2986,"ination":2987,"Ġscript":2988,"bility":2989,"gorith":2990,"Ġ'{":2991,"pytest":2992,"ween":2993,"tml":2994,"ĠBase":2995,"Ġthey":2996,"iltin":2997,"safe":2998,"Number":2999,"ha":3000,"Ġlate":3001,"rep":3002,"quires":3003,"Ġitems":3004,"Ġdown":3005,"Ġfailed":3006,".*":3007,".')\\":3008,"Su":3009,"Ġsingle":3010,"([[":3011,"Ġdep":3012,"Ġmon":3013,"force":3014,"Ġforce":3015,"Ġgo":3016,"ĠConfig":3017,"ĠWIT":3018,"ĠTypeError":3019,"00000000":3020,"Attributes":3021,"UM":3022,"repo":3023,"Ġcalled":3024,"Ġ12":3025,"handle":3026,"79":3027,"cell":3028,"ĠHTTP":3029,"ize":3030,"ĠsetUp":3031,"Ġ----------\\":3032,"Ġtmp":3033,"Ġsix":3034,"Point":3035,"Down":3036,"63":3037,"ART":3038,"HE":3039,"long":3040,"nap":3041,"Ġpk":3042,"users":3043,"attributes":3044,"Ġinstead":3045,"Command":3046,"assertIs":3047,"interface":3048,"nPER":3049,"ĠSMALL":3050,">\\\\":3051,"UB":3052,"Ad":3053,"olver":3054,"ifi":3055,"mat":3056,"licit":3057,"Ġ&',":3058,"ured":3059,"inf":3060,"70":3061,"Line":3062,"Ġ----":3063,"PWATER":3064,"Ġ20":3065,"nPERLND":3066,"52":3067,"dt":3068,"GET":3069,"cket":3070,"Ġusername":3071,"Ġmap":3072,"Lay":3073,"step":3074,"Ġtypes":3075,"ged":3076,"clear":3077,"'\\\",":3078,"oken":3079,"telse":3080,"Ġstatic":3081,"69":3082,"Ġmy":3083,"ĠDo":3084,"emplate":3085,"button":3086,"Ġpick":3087,"ranch":3088,"eded":3089,"ial":3090,"Ġthem":3091,"Ġposition":3092,"Box":3093,"Py":3094,"Validation":3095,"ric":3096,"Ġtree":3097,"children":3098,"Ġ\\\".":3099,"0941":3100,"dep":3101,"(__":3102,"FORM":3103,"some":3104,"Ġreal":3105,"gt":3106,"Ġvar":3107,"Ġdocument":3108,"gest":3109,"_='":3110,"scale":3111,"aly":3112,"Checker":3113,"Ġproperty":3114,"controls":3115,"CONF":3116,"ĠParameters":3117,"31":3118,"rer":3119,"Ġ*\\":3120,"Ġjoin":3121,"ĠImportError":3122,"fra":3123,"Ġinformation":3124,"oci":3125,"Ġter":3126,"tera":3127,"Implemented":3128,"aml":3129,"sure":3130,"BooleanField":3131,"Ġpassed":3132,"Ġlike":3133,"vity":3134,"include":3135,"Ġlib":3136,"0935":3137,"Ġpla":3138,"expr":3139,"Ġhandler":3140,"ĠHttp":3141,"255":3142,"bot":3143,"={'":3144,"Ġreverse":3145,"Ġsrc":3146,"Ġexample":3147,"sity":3148,"verbose":3149,"Ġdomain":3150,"ics":3151,"verage":3152,"App":3153,"('-":3154,"dirs":3155,"window":3156,"urls":3157,"This":3158,"buffer":3159,"Ġ],\\":3160,"044":3161,"TI":3162,"},":3163,"ĠĠĠĠĠĠĠĠĠĠĠĠĠĠĠĠĠĠĠĠĠĠĠĠĠĠĠĠĠĠĠĠĠ":3164,"fl":3165,"---\\":3166,"Ġglobal":3167,"witch":3168,"()[":3169,"team":3170,"Ġdelete":3171,"Ġtri":3172,"VAL":3173,"folder":3174,"OP":3175,"ferent":3176,"(**":3177,"stderr":3178,"Ġsorted":3179,"Dis":3180,"wner":3181,"ship":3182,"Ġsimple":3183,"go":3184,"Ġ[])\\":3185,"pool":3186,"ending":3187,"prec":3188,"rand":3189,"ceiv":3190,"Ġresp":3191,"classmethod":3192,"Ġsecond":3193,"Ġrecord":3194,"Ġrepresent":3195,"tprint":3196,"commit":3197,"stalled":3198,"Warning":3199,"mall":3200,"zy":3201,"Ġtop":3202,"lex":3203,"Ġho":3204,"Ġapi":3205,"Ġmessages":3206,"Ġopts":3207,"Len":3208,"ceback":3209,"hether":3210,"ACK":3211,"cd":3212,"stats":3213,"ift":3214,"hen":3215,"cision":3216,"ron":3217,"nb":3218,"nsor":3219,"except":3220,"Ġ%(":3221,"With":3222,"ret":3223,"Header":3224,"PRO":3225,"]]":3226,"sted":3227,"istr":3228,"seq":3229,"Ġmetadata":3230,"Ġ::":3231,"0932":3232,"ializer":3233,"Ġexisting":3234,"duce":3235,"uuid":3236,"Manager":3237,"til":3238,"simple":3239,"ĠRE":3240,"ERR":3241,"Ġplt":3242,"Page":3243,"Le":3244,"umerate":3245,"gorithm":3246,"regex":3247,"90":3248,"Str":3249,"Ġtotal":3250,"istration":3251,"tify":3252,"inition":3253,"edit":3254,"desc":3255,"Ġexc":3256,"shot":3257,"almost":3258,"Ġest":3259,"Ġimplement":3260,"tfor":3261,"opt":3262,"iden":3263,"signed":3264,"style":3265,"rec":3266,"lem":3267,"ORT":3268,"================================":3269,"Ġspec":3270,"Ġ16":3271,"Ca":3272,"used":3273,"valu":3274,"choice":3275,"sue":3276,"Ġdt":3277,"imp":3278,"control":3279,"addr":3280,"assertIn":3281,"ĠCol":3282,"ITAL":3283,"grade":3284,"Ġadmin":3285,"dio":3286,"PATH":3287,"54":3288,"Ġ</":3289,"Ġwidth":3290,"ditional":3291,"eff":3292,"Ġsk":3293,"words":3294,"Ġattributes":3295,"DC":3296,"cat":3297,"total":3298,"Ġmethods":3299,"ABLE":3300,"DATA":3301,"ĠTO":3302,"iler":3303,"ĠCAP":3304,"IGN":3305,"Ġdifferent":3306,"EV":3307,"public":3308,"support":3309,"Ġclean":3310,"CA":3311,"Ġ-*-":3312,"Ġwait":3313,"img":3314,"known":3315,"dirname":3316,"Contain":3317,"ĠCAPITAL":3318,"Sto":3319,"ello":3320,"Ġdefined":3321,"Ġinvalid":3322,"media":3323,"Gener":3324,"Ġpoly":3325,"let":3326,"ntax":3327,"Order":3328,"('\\\\":3329,"ITY":3330,"Ġselect":3331,"enter":3332,"Ġ\\\",":3333,"NE":3334,"vari":3335,"head":3336,"Ġsum":3337,"Context":3338,"Invalid":3339,"Ġ)":3340,"Ġgenerate":3341,"language":3342,"Mock":3343,"Ġmis":3344,"Ġcollection":3345,"creen":3346,"-%":3347,"forms":3348,"ob":3349,"Ġchunk":3350,"********":3351,"ystem":3352,"tification":3353,"Ġsql":3354,"Ġenumerate":3355,"Ġ-*-\\":3356,"unit":3357,"USER":3358,"batch":3359,"distri":3360,"Ġmulti":3361,"Ġfunctions":3362,"Cur":3363,"PA":3364,"dic":3365,"Ġmod":3366,"ground":3367,"AA":3368,"tivity":3369,"player":3370,"Ġ\"#!":3371,"Ġgraph":3372,"Sta":3373,"Mixin":3374,"loop":3375,"choices":3376,"tf":3377,"Ġhtml":3378,"alized":3379,"Ġlay":3380,"POST":3381,"entries":3382,"Ġsection":3383,"Ġpresent":3384,"Ġsend":3385,"BU":3386,"DIR":3387,"Ge":3388,"sl":3389,"PL":3390,"Ġinteger":3391,"Ġdetails":3392,"ws":3393,"vided":3394,"Ġmp":3395,"pol":3396,"Ġmath":3397,"?\\":3398,"ĠNotImplemented":3399,"Ġus":3400,"Service":3401,"modules":3402,"ĠYou":3403,")*":3404,"Button":3405,"af":3406,"mean":3407,"Ġplugin":3408,"0001":3409,"ĠAs":3410,"usage":3411,"58":3412,".%":3413,"\\\"\\\\":3414,"MET":3415,"ose":3416,"Ġconfiguration":3417,"Ġunique":3418,"Ġeven":3419,"Ġbetween":3420,"ceived":3421,"74":3422,"Ġsubprocess":3423,"fetch":3424,"short":3425,"escape":3426,"penden":3427,"Int":3428,"created":3429,"tab":3430,"moved":3431,"labels":3432,"Ġmember":3433,"INT":3434,"EST":3435,"Ġ[[":3436,"cii":3437,"345":3438,"way":3439,"Ġcommands":3440,"ffff":3441,"zation":3442,"product":3443,"istry":3444,"::\\":3445,"dim":3446,"istory":3447,"factory":3448,"Label":3449,"student":3450,"\\\"}),\\":3451,"ValidationError":3452,"ĠPer":3453,"Function":3454,"mount":3455,"download":3456,"Ġoriginal":3457,"AGE":3458,"curity":3459,"`.\\":3460,"gp":3461,"'][":3462,"ily":3463,"Ġframe":3464,"Ġidx":3465,"parameters":3466,"binary":3467,"record":3468,"git":3469,"gate":3470,"ector":3471,"nprint":3472,"ĠEn":3473,"Ġstrings":3474,"ĠAPI":3475,"On":3476,"sk":3477,"Ġurllib":3478,"Ġ\\\"/":3479,"mpy":3480,"Ġcomment":3481,"pair":3482,"LINE":3483,"ins":3484,"Ġph":3485,"Table":3486,"gy":3487,"Ġeq":3488,"Ġti":3489,"Ġlookup":3490,"Ġinitial":3491,"\\\",\\\"":3492,"SH":3493,"Ġ\\\"\\\"\\":3494,"Ġplatform":3495,"Ġcomponent":3496,"ctype":3497,"__)\\":3498,"Method":3499,"AND":3500,"Version":3501,"]),":3502,"cords":3503,"Ġ\\\"<":3504,"Ġcontrol":3505,"ĠGe":3506,"platform":3507,"Ġmigrations":3508,"iod":3509,"Ġ})\\":3510,"success":3511,"Buffer":3512,"Ġskip":3513,"added":3514,"aries":3515,"zero":3516,"]])\\":3517,"Connection":3518,"sym":3519,"All":3520,",'":3521,"learn":3522,"DEFAULT":3523,"Ġrepo":3524,"ĠName":3525,"Ġuid":3526,"ĠAND":3527,"ĠNote":3528,")])\\":3529,"help":3530,"cker":3531,"ĠAttribute":3532,"common":3533,"CI":3534,"FO":3535,"pkg":3536,":]\\":3537,"indent":3538,"poly":3539,"Ġexists":3540,"ĠCourse":3541,"VE":3542,"cies":3543,"cheme":3544,"ings":3545,"six":3546,"Ġabout":3547,"hs":3548,"engine":3549,"dat":3550,"lookup":3551,"release":3552,"Ġstyle":3553,"ube":3554,"ĠVer":3555,"gress":3556,"tition":3557,"amma":3558,"ordin":3559,"Tree":3560,"raph":3561,"WOR":3562,"warn":3563,"leted":3564,"Ġwri":3565,"links":3566,"`\\":3567,"__,":3568,"coder":3569,"hook":3570,"Option":3571,"role":3572,"Source":3573,"Instance":3574,"Ġencode":3575,"Ġ\"#!/":3576,"quote":3577,"End":3578,"ĠPo":3579,"ĠRun":3580,"exceptions":3581,"SET":3582,"distribu":3583,"none":3584,"case":3585,"Ġstop":3586,"Array":3587,"tach":3588,"proxy":3589,"Ġfinally":3590,"loads":3591,"Ġinstall":3592,"namespace":3593,"ĠSo":3594,"Ġpacket":3595,"ublished":3596,"Ġcli":3597,"Ġ\\\"-":3598,"Ġ14":3599,"helper":3600,"ighb":3601,"Code":3602,"attribute":3603,"Ġblank":3604,"wards":3605,"ueue":3606,"Ġdf":3607,"account":3608,"Ġet":3609,"leep":3610,"Ġenviron":3611,"SA":3612,"Ġ201":3613,"Token":3614,"ANG":3615,"pecial":3616,"ually":3617,"RI":3618,"sig":3619,"Ġext":3620,"ĠUn":3621,"buf":3622,"SER":3623,"application":3624,"SO":3625,"Ġsupported":3626,"rays":3627,"bstract":3628,"gr":3629,"Ġkeep":3630,"sec":3631,"]*":3632,"Ġrep":3633,"policy":3634,"socket":3635,"Start":3636,"FN":3637,"remote":3638,"Ġconf":3639,"Unless":3640,"Ġthrough":3641,"Ġexport":3642,"Sh":3643,"Ġprovided":3644,"Multi":3645,"correct":3646,"94":3647,"nexcept":3648,"stat":3649,"ĠComp":3650,"exist":3651,"Ġsequence":3652,"Ġ}}":3653,"document":3654,"HTML":3655,"Ġsignal":3656,"Ġcallback":3657,"bad":3658,"medi":3659,"Ġleft":3660,"Ġtrain":3661,"precated":3662,"gether":3663,"many":3664,"alpha":3665,"__\\":3666,"double":3667,"7801":3668,"Iter":3669,"ession":3670,"Ġuint":3671,"END":3672,"Ġpoints":3673,"nn":3674,"lear":3675,"med":3676,"98":3677,"(\\\\":3678,"ptr":3679,"TextField":3680,"'+":3681,"Ġthese":3682,"city":3683,"agg":3684,"hex":3685,"pattern":3686,"ĠDjango":3687,"sep":3688,"FL":3689,"Ġactual":3690,"CC":3691,"Ġweight":3692,"Ġvalidate":3693,"center":3694,"Ġ):\\":3695,"ERROR":3696,"Ġ>',":3697,"mk":3698,"alt":3699,"endswith":3700,"sive":3701,"fp":3702,"Ġbackend":3703,"fg":3704,")\\\"":3705,"reverse":3706,"Ġcontains":3707,"gument":3708,"cursor":3709,"Ġbuffer":3710,"76":3711,"ascii":3712,"Block":3713,"ib":3714,"provider":3715,"egg":3716,"lative":3717,"oogle":3718,"wrap":3719,"Ro":3720,"ĠSer":3721,"xture":3722,"################################################################":3723,"cfg":3724,"Of":3725,"One":3726,"Socket":3727,"Ġclasses":3728,"validate":3729,"If":3730,"Ġadded":3731,"ank":3732,"')),\\":3733,"ĠOr":3734,"testing":3735,"']\\\"}),\\":3736,"ĠDO":3737,"'re":3738,"91":3739,"home":3740,"IGHT":3741,"Ġstdout":3742,"Ġsplit":3743,"LIC":3744,"nc":3745,"Ġstep":3746,"ĠFile":3747,"warning":3748,"Ġ30":3749,"'^":3750,"Ġreplace":3751,"Ġstore":3752,"ilder":3753,"ixed":3754,"ffix":3755,"second":3756,"dumps":3757,"ferences":3758,"Ġagain":3759,"':'":3760,"Server":3761,"Interface":3762,"async":3763,"ĠĠĠĠĠĠĠĠĠĠĠĠĠĠĠĠĠĠĠĠĠĠĠĠĠĠĠĠĠĠĠĠĠĠ":3764,"Ġalong":3765,"Ġtags":3766,"ĠTODO":3767,"Ġlater":3768,"numpy":3769,"volume":3770,"Ġpair":3771,"Ġdisable":3772,"Found":3773,"Ġ\\\"{":3774,"Ġstandard":3775,"spe":3776,"Ġhand":3777,"Ġmultiple":3778,"paths":3779,"Ġbyte":3780,">,":3781,"CS":3782,"Ġalways":3783,"('.":3784,"\\\\.":3785,"Ġ15":3786,"views":3787,"97":3788,"uter":3789,"iso":3790,"hould":3791,"icro":3792,"Ġignore":3793,"84":3794,"Ġconvert":3795,"napshot":3796,"Ġsince":3797,"Ġ[(":3798,"ĠNotImplementedError":3799,"directory":3800,"modi":3801,"columns":3802,"zeros":3803,"Sign":3804,"Ġrel":3805,"ĠKeyError":3806,"ĠMe":3807,"61":3808,"Window":3809,"regate":3810,"aa":3811,"aved":3812,"LOG":3813,"Types":3814,"screen":3815,"require":3816,"'}\\":3817,"Admin":3818,"this":3819,"CL":3820,"nodes":3821,"unded":3822,"Ġfp":3823,"Ġ\\\"__":3824,"ural":3825,"factor":3826,"convert":3827,"sume":3828,"arr":3829,"Ġsen":3830,"`,":3831,"icommand":3832,"Image":3833,"pid":3834,"ĠUni":3835,"span":3836,"ĠRes":3837,"ons":3838,"rection":3839,"Ġ((":3840,"pick":3841,"OO":3842,"Ġtz":3843,"tact":3844,"Status":3845,"herit":3846,"Ġreference":3847,"0947":3848,"Ġpd":3849,"Ġcursor":3850,"Ġutils":3851,"rule":3852,"teration":3853,"eds":3854,"85":3855,"Ġ:\\":3856,"NS":3857,"API":3858,"sten":3859,"ĠQt":3860,"slug":3861,"mag":3862,"tom":3863,"ĠAttributeError":3864,"transform":3865,"timestamp":3866,"sparse":3867,"Ġour":3868,"__':\\":3869,"ĠOn":3870,"We":3871,"tv":3872,"operator":3873,"Store":3874,"IF":3875,"yload":3876,"Iterator":3877,"ath":3878,"Ġfoo":3879,"Ġlanguage":3880,"override":3881,")\\\",":3882,"xxxx":3883,"\\\":\\\"":3884,"fici":3885,"Indent":3886,"IONS":3887,"nf":3888,"ĠCON":3889,"Ġ$":3890,"001":3891,"click":3892,"tialize":3893,"Ġwhether":3894,"utes":3895,"storage":3896,"Ġdebug":3897,"ĠDE":3898,"ĠĠĠĠĠĠĠĠĠĠĠĠĠĠĠĠĠĠĠĠĠĠĠĠĠĠĠĠĠĠĠĠĠĠĠĠĠĠĠ":3899,"interval":3900,"cv":3901,"series":3902,"rowser":3903,"CR":3904,"Ġsympy":3905,"Ġboth":3906,"cluster":3907,"ĠTo":3908,"Ġvari":3909,"Ġcannot":3910,"gative":3911,"Ġlin":3912,"orter":3913,"ategory":3914,"ĠTime":3915,"ils":3916,"Ġdataset":3917,"Dele":3918,"[:-":3919,"Ġspa":3920,"ĠDi":3921,"Access":3922,"ancel":3923,"FTDC":3924,"IR":3925,"Ġsort":3926,"Ġproblem":3927,"Ġspecific":3928,"ĠHttpResponse":3929,"87":3930,"Ġpi":3931,"Ġpatch":3932,"apps":3933,"ĠMo":3934,"Ġjob":3935,"Ġwhat":3936,"Change":3937,"Ġwindow":3938,"Ġcoun":3939,"resp":3940,"byte":3941,"events":3942,"iteral":3943,"Ġoperation":3944,"nTHOST":3945,"initial":3946,"extract":3947,"Ġ-=":3948,"86":3949,":\\\\":3950,"cret":3951,"Ġcontaining":3952,"Ġcustom":3953,"flag":3954,"]]\\":3955,"Ġchannel":3956,"PS":3957,"yp":3958,"Ġexpr":3959,"pip":3960,"URE":3961,"----------------------------------------------------------------":3962,"reset":3963,"Ġunit":3964,")).":3965,"Hash":3966,"report":3967,"sid":3968,"Ġabsolute":3969,"Ġinit":3970,"Ġelements":3971,"bc":3972,"ev":3973,"rest":3974,"ops":3975,"bound":3976,"ines":3977,"stant":3978,".\\\"":3979,"eline":3980,"assword":3981,"Ġdefaults":3982,"Ġrequests":3983,"Ġconver":3984,"ĠPy":3985,"Output":3986,")+":3987,"ANT":3988,"Ġcv":3989,"agent":3990,"---":3991,"signal":3992,"Ġlabels":3993,"NetDevice":3994,"ux":3995,"Ġflag":3996,"]),\\":3997,"seconds":3998,"commands":3999,"Returns":4000,"Ġfree":4001,"ross":4002,"Ġtheir":4003,"Ġfeature":4004,"Ġinclu":4005,"distance":4006,"Ġbeing":4007,"Open":4008,"Read":4009,"Ġuseful":4010,"crement":4011,"Ġrepr":4012,"Queue":4013,"after":4014,"\\\">\\":4015,"Ġ11":4016,"database":4017,"Ġlibrary":4018,"rong":4019,"problem":4020,"sitory":4021,"Literal":4022,"SQL":4023,"Ġob":4024,"('%":4025,"Ġappro":4026,"(\\\"\\\\":4027,"mbed":4028,"Ġda":4029,"Ġaccount":4030,"cks":4031,"ĠAuth":4032,"Ġ32":4033,"Ġclose":4034,"tb":4035,"'d":4036,"72":4037,"Fe":4038,"fc":4039,"come":4040,"0917":4041,"ĠMake":4042,"Ġhttps":4043,"ZE":4044,"redirect":4045,"collection":4046,"font":4047,"Ġvolume":4048,"Ġgen":4049,"Ġcolumns":4050,"umeric":4051,"Ġrequire":4052,"']\\\",":4053,"Stream":4054,"month":4055,"Ġmat":4056,"loaded":4057,"basic":4058,"Ġopt":4059,"rollment":4060,"mapping":4061,"Ġvariables":4062,"Entry":4063,"ĠApp":4064,"angle":4065,"called":4066,"tio":4067,"ilter":4068,"Imp":4069,"Ġpip":4070,"Ġinteg":4071,"loy":4072,"rb":4073,"Ġ\"\\\"\\\"\\\"\\":4074,"Ġarch":4075,"Ġcommon":4076,"vs":4077,"super":4078,"SP":4079,"ould":4080,"respon":4081,"Ġmedia":4082,"BA":4083,"route":4084,"ĠList":4085,"Ġrunning":4086,"ĠField":4087,"question":4088,"LECT":4089,"ĠOption":4090,"driver":4091,"lite":4092,"Ġfeatures":4093,"Ġpossible":4094,"Ġsklearn":4095,"Gui":4096,"ACE":4097,"png":4098,"Ġredirect":4099,"Ġtr":4100,"lim":4101,"Ġflags":4102,"container":4103,"9999":4104,"Ġpaths":4105,"Dir":4106,"atible":4107,"cing":4108,"Ġoc":4109,"upper":4110,"ĠshowIndent":4111,"assifier":4112,"Ġ%}":4113,"chedu":4114,"prop":4115,"Control":4116,"Ġindent":4117,"wri":4118,"ĠUse":4119,"holder":4120,"Ġlook":4121,"INGLE":4122,"titem":4123,"Ġevents":4124,"lass":4125,"Ġremote":4126,"ones":4127,"Ġtoo":4128,"MI":4129,"Ġdistributed":4130,"PORT":4131,"Ġsig":4132,"Ġprovide":4133,"indices":4134,"Ġmapping":4135,"Ġzero":4136,"Log":4137,"eq":4138,"Ġkw":4139,"Ġequal":4140,"permissions":4141,"}'.":4142,"Ġreport":4143,"ĠSE":4144,"IE":4145,"Uni":4146,"ĠOS":4147,"ĠJSON":4148,"Oper":4149,"arange":4150,"rows":4151,"pix":4152,"Length":4153,"sw":4154,"actions":4155,"MPLE":4156,"And":4157,"ToMany":4158,"Ġplace":4159,"Ġevery":4160,"custom":4161,"Ġkeyword":4162,"Logger":4163,"Ġnetwork":4164,"where":4165,"Ġstri":4166,"pose":4167,"../":4168,"47":4169,"hostname":4170,"Format":4171,"DS":4172,"schema":4173,"Ġforms":4174,"ITE":4175,"Ġdistribution":4176,"Ġterms":4177,"uted":4178,"Ġlogin":4179,"spaces":4180,"Sy":4181,"ULL":4182,"Ġbased":4183,"Ġmodify":4184,"Ġuses":4185,"Ġcharacters":4186,"Ġinstalled":4187,"Ġword":4188,"sertion":4189,"Matrix":4190,"Doc":4191,"Ġqs":4192,"Ġauthor":4193,"Clo":4194,"unds":4195,"ĠMock":4196,"je":4197,"chain":4198,"Ġwould":4199,"ored":4200,"Ġparts":4201,"ĠTh":4202,"protocol":4203,"Ġoverride":4204,"wiki":4205,"(('":4206,"Ġmetri":4207,"34567":4208,"ignore":4209,"ĠIP":4210,"eval":4211,"pg":4212,"nu":4213,"vation":4214,"Ġway":4215,"hidden":4216,"{\\":4217,"internet":4218,"BC":4219,"Ġmany":4220,"STR":4221,"46":4222,"aris":4223,"ested":4224,"Failed":4225,"Ġalias":4226,"Edit":4227,"0942":4228,"together":4229,"Ġplay":4230,"Ġ%\\":4231,"backend":4232,"light":4233,"false":4234,"'[":4235,"Ġplot":4236,"Children":4237,"Ġsepar":4238,"enabled":4239,"uest":4240,"ĠWITH":4241,"owner":4242,"ithub":4243,"{%":4244,"__.":4245,"(\\\"/":4246,"({\\":4247,"Ġallowed":4248,"lif":4249,"Ġprevious":4250,"ia":4251,"arge":4252,"mac":4253,"Ġconstructor":4254,"128":4255,"BO":4256,"Ġdone":4257,"uring":4258,"123":4259,"yy":4260,"liter":4261,"Ġbad":4262,"Map":4263,"bind":4264,"Ġanother":4265,"Ġsafe":4266,"compiler":4267,"Deleter":4268,"dataset":4269,"INGS":4270,"verify":4271,"ĠST":4272,"cm":4273,"Ġdimen":4274,"NN":4275,"PY":4276,"\\\"]=":4277,"]',":4278,"matic":4279,"inner":4280,"category":4281,"Ġloc":4282,"ished":4283,"global":4284,"star":4285,"subclass":4286,"~~~~":4287,"'\\\"":4288,"Ġrc":4289,"Ġselected":4290,"sqrt":4291,"Cache":4292,"Ġfn":4293,"Ġ\\\"--":4294,"Ġtesting":4295,"ĠĠĠĠĠĠĠĠĠĠĠĠĠĠĠĠĠĠĠĠĠĠĠĠĠĠĠĠĠĠĠĠĠĠĠĠ":4296,"Ġneeded":4297,"ĠDefault":4298,"Back":4299,"())":4300,"Ġvol":4301,"WS":4302,"entication":4303,"Ġmissing":4304,"mbo":4305,"Ġ))\\":4306,"roy":4307,"Ġtm":4308,"Middleware":4309,"seek":4310,"tries":4311,"ĠBy":4312,"Ġbatch":4313,"()))\\":4314,"Ġ-------\\":4315,"days":4316,"Param":4317,"Bar":4318,"pare":4319,"gf":4320,"AttributeValue":4321,"FORMAT":4322,"Ġalgorithm":4323,"BUG":4324,"ansible":4325,"edx":4326,"shift":4327,"Ġsetting":4328,"scriptor":4329,"Ġpkg":4330,"OUT":4331,"rot":4332,":\\\"":4333,"Ġcould":4334,"Ġ+\\":4335,"ification":4336,"telif":4337,"ĠAl":4338,"73":4339,"Plugin":4340,"fill":4341,"UE":4342,"ulate":4343,"Ġproduct":4344,"Ġcallable":4345,"92":4346,"unch":4347,"Ġ25":4348,"Account":4349,"ĠRequest":4350,"Ġsuch":4351,"Position":4352,"Ġextension":4353,"cb":4354,"inst":4355,"tiali":4356,"trl":4357,"dius":4358,"Ġensure":4359,"qs":4360,"unpack":4361,"uplic":4362,"Ġdiff":4363,"RAN":4364,"andid":4365,"staff":4366,"43":4367,"Ġprimary":4368,"reshold":4369,"RefCount":4370,"yes":4371,"Ġheight":4372,"Ġcertificate":4373,"Ġpattern":4374,"ummy":4375,"SimpleRefCount":4376,"Ġpickle":4377,"single":4378,"=\\":4379,"Ġcr":4380,"Ġreceived":4381,"ĠMy":4382,"Ġimg":4383,"icon":4384,"ĠEN":4385,"ROM":4386,"Ġcontents":4387,"xtra":4388,"struction":4389,"ĠWhen":4390,"ĠColumn":4391,"ppe":4392,"ĠMode":4393,"Variable":4394,"Ġ[('":4395,"ĠAR":4396,"cap":4397,"Men":4398,"agement":4399,"Ġ'',":4400,"Ġloop":4401,"eg":4402,"Ġscale":4403,")',":4404,"Ġgot":4405,"scal":4406,"Ġcluster":4407,"serialize":4408,"Sp":4409,"lint":4410,"GE":4411,"specifi":4412,"Ġsim":4413,"Ġseconds":4414,"Qt":4415,"SD":4416,"Ġbel":4417,"gettext":4418,"acy":4419,"=_":4420,"AM":4421,"']),\\":4422,"complete":4423,"AUT":4424,"Course":4425,"Ġ>>":4426,"Ġsite":4427,"ffset":4428,"missing":4429,"generate":4430,"selected":4431,"arDown":4432,"Ġschema":4433,"lack":4434,"Ġhome":4435,"ĠAN":4436,"Ġusers":4437,"}/":4438,"ĠĠĠĠĠĠĠĠĠĠĠĠĠĠĠĠĠĠĠĠĠĠĠĠĠĠĠĠĠĠĠĠĠĠĠĠĠ":4439,"ridge":4440,"Ġprovider":4441,"Current":4442,"HA":4443,"cores":4444,"Ġhigh":4445,"ars":4446,"Ġbound":4447,"sole":4448,"cription":4449,"Ġ//":4450,"integer":4451,"pted":4452,"sired":4453,"private":4454,"master":4455,"Ġip":4456,"Ġdefinition":4457,"Ġinstances":4458,"packages":4459,"Layout":4460,"Ġimplementation":4461,"utor":4462,"Ġmean":4463,"complex":4464,"Rel":4465,"lang":4466,"utc":4467,"dst":4468,"Ġdownload":4469,"alk":4470,"Ġwx":4471,"Ġexit":4472,"Ġnamed":4473,"Ġdirect":4474,"([])\\":4475,"reshape":4476,"sleep":4477,"ony":4478,"Ġoccur":4479,"AY":4480,"ga":4481,"Ġ'')\\":4482,"Ġedit":4483,"hass":4484,"cos":4485,"Ġbinary":4486,"ficient":4487,"DATE":4488,"chine":4489,"]):\\":4490,"okies":4491,"[^":4492,"Ġqueue":4493,"alle":4494,"Ġfl":4495,"96":4496,"Link":4497,"Ġids":4498,"Ġrelation":4499,"Ġindices":4500,"crypt":4501,"ru":4502,"ressed":4503,"Ġnodes":4504,"scope":4505,"ĠĠĠĠĠĠĠĠĠĠĠĠĠĠĠĠĠĠĠĠĠĠĠĠĠĠĠĠĠĠĠĠĠĠĠĠĠĠ":4506,"umbna":4507,"=-":4508,"rm":4509,"dig":4510,":'":4511,"strument":4512,"Ġ\"\\\"\\\"\\\"":4513,"Ġlock":4514,"(%":4515,"Ġfont":4516,"abi":4517,"cookie":4518,"quested":4519,"Ġfolder":4520,"MAX":4521,"Ġ--------\\":4522,"XT":4523,"tems":4524,"41":4525,"imple":4526,"Ġvector":4527,"Select":4528,"Ġexpect":4529,"Ġstats":4530,"failed":4531,"Ġ(-":4532,"ctories":4533,"facts":4534,"(?:":4535,"Ġwithin":4536,"Filter":4537,"PRE":4538,"nmark":4539,"Ġtf":4540,"Ġotherwise":4541,"feed":4542,"Ġbuf":4543,"Mac":4544,"Ġasync":4545,"times":4546,"ĠIndex":4547,"IM":4548,"bf":4549,"lots":4550,"counter":4551,"Ġctx":4552,"failure":4553,"hour":4554,"Reference":4555,"perly":4556,"ĠWAR":4557,"tation":4558,"properties":4559,"licen":4560,"Ġvia":4561,")]":4562,",))\\":4563,"Ġ'$":4564,"Ġrule":4565,"filters":4566,"hy":4567,"Ġmaster":4568,"ii":4569,"ral":4570,"Ġbutton":4571,"geom":4572,"itor":4573,"ĠBO":4574,"81":4575,"Ġfit":4576,"vers":4577,"docs":4578,"ventory":4579,"Ġenvironment":4580,"GER":4581,"cla":4582,"Ġmu":4583,"press":4584,"flat":4585,"leg":4586,"Ġbit":4587,"sim":4588,"Ġvm":4589,"000000":4590,"Wrapper":4591,")\\\\":4592,"Ġremoved":4593,"Hex":4594,"('<":4595,"warnings":4596,"tities":4597,"Ġalpha":4598,"Ġhow":4599,"Property":4600,"Prefix":4601,"82":4602,"sequence":4603,"scan":4604,"Ġdouble":4605,"csv":4606,"COL":4607,"ĠBu":4608,"ado":4609,"Search":4610,"CRE":4611,"cus":4612,"enable":4613,"Ġverify":4614,"just":4615,"menu":4616,"Ġchanges":4617,"Ġworks":4618,"culate":4619,"$',":4620,"New":4621,"eno":4622,"Ġwho":4623,"assertNot":4624,"permission":4625,"normal":4626,"SIZE":4627,"Ġsc":4628,"Ġscal":4629,"Ġcookie":4630,"parts":4631,"pixel":4632,"dar":4633,"cols":4634,"wap":4635,"1000":4636,"align":4637,"ToManyField":4638,"ĠPO":4639,"Ġactive":4640,"Ġqueryset":4641,"Ġattemp":4642,"Ġmatches":4643,"abspath":4644,"Ġpublic":4645,"Ġ(%":4646,"formats":4647,"Ġpylint":4648,"chunk":4649,"ĠIO":4650,"ACT":4651,"Met":4652,"Ġ[-":4653,"Ġ_('":4654,"Ġxrange":4655,"rup":4656,"wx":4657,"Ġtransform":4658,"GR":4659,"inv":4660,"tid":4661,"Ġprogram":4662,");\\":4663,"Ġmemory":4664,"Ġraised":4665,"ĠRead":4666,"ough":4667,"Dist":4668,"Template":4669,"\\\"})\\":4670,"ached":4671,"MODE":4672,"using":4673,"CHAR":4674,"AGS":4675,"original":4676,"93":4677,"Ġsparse":4678,"Ġscreen":4679,"Positive":4680,"fname":4681,"ane":4682,"Ġans":4683,"Ġapplication":4684,"Ġpublished":4685,"ĠFI":4686,"256":4687,"Ġ13":4688,"ĠSQL":4689,"Max":4690,"resources":4691,"card":4692,"Ġfra":4693,"mbols":4694,"ĠOpen":4695,"COMM":4696,"Ġupdated":4697,"GL":4698,"Ġfinal":4699,"Ġsci":4700,"Ġtake":4701,"Ġentity":4702,"Pri":4703,"Ġdst":4704,"ĠMeta":4705,"Selection":4706,"before":4707,"DF":4708,"Network":4709,"Ġsq":4710,"ĠHTML":4711,"Ġrest":4712,"adding":4713,"absent":4714,"CODE":4715,"+'":4716,"Password":4717,"github":4718,"tt":4719,"ernel":4720,"Ġstderr":4721,"Ġgl":4722,"Ġloader":4723,"mitted":4724,"HER":4725,"tected":4726,"Bro":4727,"0916":4728,"Column":4729,"derer":4730,"Ġday":4731,"STAT":4732,"Ġassoci":4733,"sel":4734,"ĠQu":4735,"Ġdelta":4736,"hoice":4737,"PT":4738,"branch":4739,"ire":4740,"Ġspecify":4741,"del":4742,"Ġstorage":4743,"ongo":4744,"Ġsoftware":4745,"existing":4746,"SION":4747,"Ġreason":4748,"Ġtimedelta":4749,"Ġglob":4750,"kt":4751,"Ġboolean":4752,"heel":4753,"estimator":4754,"...\\":4755,"ĠBo":4756,"translation":4757,"firm":4758,"ide":4759,"lour":4760,"codes":4761,"INFO":4762,"cert":4763,"Ġiden":4764,"raft":4765,"vals":4766,"nS":4767,"Ġevalu":4768,"found":4769,"ffect":4770,"Thread":4771,"Ġedge":4772,"Ġcfg":4773,"Ġcorrespon":4774,"Ġconnect":4775,"Trace":4776,"Ġcomplete":4777,"ĠForm":4778,"defaults":4779,"Abstract":4780,"requen":4781,"raise":4782,"ICE":4783,"Menu":4784,"XML":4785,"kes":4786,"{'":4787,"relation":4788,"arm":4789,"lag":4790,"literals":4791,"sin":4792,"detail":4793,"Ġparsed":4794,"dential":4795,"licenses":4796,"Empty":4797,"akes":4798,"Ġassign":4799,"Container":4800,"umbnail":4801,"Mapp":4802,"Ġ])\\":4803,"######":4804,"Ġdetermin":4805,"ized":4806,"UST":4807,"Ġmost":4808,"Foo":4809,"freq":4810,"Ġscope":4811,"Ġinsert":4812,"Ġcomplex":4813,"404":4814,"Ġspace":4815,"failUnless":4816,"Update":4817,"DefaultDeleter":4818,"Float":4819,"rica":4820,"Ġdesc":4821,"Ġtab":4822,"peat":4823,"vec":4824,"Ġlet":4825,"TEMP":4826,"terable":4827,"Options":4828,"ving":4829,"orn":4830,"argin":4831,"tage":4832,"0430":4833,"ĠExamples":4834,"Ġdistance":4835,"zen":4836,"ality":4837,"Ġgroups":4838,"flush":4839,"NT":4840,"lon":4841,"rp":4842,"ritems":4843,"Ġmeans":4844,"atterns":4845,"tty":4846,"secret":4847,"ĠAd":4848,"builtin":4849,"ĠRa":4850,"available":4851,"MIN":4852,"Ġnd":4853,"Ġstudent":4854,"([\\":4855,"metric":4856,"Ġsuccessful":4857,"CP":4858,"ness":4859,"ority":4860,"Ctrl":4861,"Range":4862,"Ġawait":4863,"Protocol":4864,"Bytes":4865,"/>":4866,"_%":4867,"history":4868,"vas":4869,"Ġrelative":4870,"('--":4871,"ighbors":4872,"Graph":4873,"Ġpop":4874,"Ġcomb":4875,"Ġtraceback":4876,"ĠWeb":4877,"ROOT":4878,"pure":4879,"Ġmodules":4880,"Task":4881,"hello":4882,"Ġinst":4883,"ateri":4884,"ĠSub":4885,"Ġneeds":4886,"Ġhref":4887,"ĠSoftware":4888,"unknown":4889,"uous":4890,"Ġrequires":4891,"Ġissue":4892,"')(":4893,"System":4894,"nsure":4895,"absolute":4896,"WORD":4897,"Mask":4898,"Ġbar":4899,"spect":4900,"Record":4901,"faces":4902,"Ġ,'":4903,"pider":4904,"Ġdivision":4905,"gnu":4906,"WN":4907,"see":4908,"lap":4909,"Vector":4910,"draw":4911,"dian":4912,"nored":4913,"nected":4914,"Min":4915,"ords":4916,"Ġcondition":4917,"basename":4918,"hint":4919,"publish":4920,"}\\\".":4921,"Theme":4922,"region":4923,"Loader":4924,"RAW":4925,"Helper":4926,"reddit":4927,"feature":4928,"Ġoperator":4929,"ĠStringIO":4930,"SL":4931,"sha":4932,"ONE":4933,"ks":4934,"Ġscore":4935,"istered":4936,"Ġstill":4937,"ĠError":4938,"fixture":4939,"person":4940,"cording":4941,"Fail":4942,"Match":4943,"ible":4944,"Ġbest":4945,"Ġrole":4946,"Exec":4947,"DOUT":4948,"contains":4949,"Ne":4950,"orary":4951,"done":4952,"isode":4953,"lazy":4954,"Ġkind":4955,"nplt":4956,"ializ":4957,"ĠCommand":4958,"identical":4959,"arison":4960,"quiv":4961,"fmt":4962,"lities":4963,"Row":4964,"Ġclear":4965,"attrib":4966,"fake":4967,">')\\":4968,"ARE":4969,"ĠSy":4970,"\\\\\\\"":4971,"sm":4972,"dicate":4973,"AttributeChecker":4974,"middleware":4975,"expi":4976,"ĠTemplate":4977,"disc":4978,"Ġcollections":4979,"Ġreset":4980,"Ġ1000":4981,"havi":4982,"cheduler":4983,"rea":4984,"Ġisn":4985,"posed":4986,"cached":4987,"tool":4988,"ĠReg":4989,"PC":4990,"Ġnumbers":4991,"!\\":4992,"Ġ60":4993,"country":4994,"Ġwrapper":4995,"Ġmer":4996,"Ġprotocol":4997,"ĠModel":4998,"Ġyear":4999,"Delete":5000,"``,":5001,"Ren":5002,"Ġput":5003,"ĠCO":5004,"Ġdecimal":5005,"Ġwere":5006,"Ġcs":5007,"note":5008,"pendencies":5009,"83":5010,"anization":5011,"ĠDate":5012,"strict":5013,"depth":5014,"stor":5015,"ĠFound":5016,"aving":5017,"Ġcharacter":5018,"/',":5019,"Ġcontainer":5020,"summary":5021,"selection":5022,"Ġpl":5023,"0926":5024,"Color":5025,"ail":5026,"lip":5027,"upload":5028,"ĠDis":5029,"hosts":5030,"Ġshort":5031,"cloud":5032,"OF":5033,"sur":5034,"------------":5035,"``.\\":5036,")\\\"\\":5037,"anti":5038,"logging":5039,"amily":5040,"Ġaccept":5041,"answer":5042,"Ġlayer":5043,"queryset":5044,"hn":5045,"Ġwar":5046,"bove":5047,"contents":5048,"price":5049,"att":5050,"ManyToManyField":5051,"rv":5052,"poch":5053,"Process":5054,"Ġcurrently":5055,"Ġ24":5056,"Ġtimes":5057,"subprocess":5058,"ading":5059,"Ġcompute":5060,"Ġscipy":5061,"'%":5062,"Ġ\\\"+":5063,"exe":5064,"ĠXXX":5065,"Ġformats":5066,"Ġaliases":5067,")**":5068,"term":5069,"NotEx":5070,"Ġentries":5071,"DEF":5072,"STDOUT":5073,"gi":5074,"entity":5075,"dient":5076,"timeError":5077,"Remove":5078,"Ġprofile":5079,"ĠUp":5080,"Ġleast":5081,"Ġregion":5082,"Ġgenerated":5083,"Ġencoded":5084,"SINGLE":5085,"Ġidentifier":5086,"targets":5087,"__\\\":\\":5088,"ĠDist":5089,"Ġsetattr":5090,"Values":5091,"blocks":5092,"ĠPoint":5093,"nx":5094,"ene":5095,"ence":5096,"Ġcalls":5097,"gon":5098,"Resource":5099,"Ġsent":5100,"Ġuntil":5101,"Ġperform":5102,"ĠPre":5103,"Ġimplied":5104,"Ġ{})\\":5105,"backends":5106,"inputs":5107,"([\\\"":5108,"Be":5109,"amp":5110,"Ġsubclass":5111,"duration":5112,"ĠAS":5113,"Exchange":5114,"constraint":5115,"Ġweights":5116,"odv":5117,"/\\":5118,"mu":5119,"security":5120,"Ġio":5121,"ifest":5122,")'":5123,"mor":5124,"acti":5125,"ird":5126,"ĠWindow":5127,");":5128,".+":5129,"ĠGroup":5130,"Ġrows":5131,"Ġagg":5132,"compat":5133,"plugins":5134,"gl":5135,"Ġexplicit":5136,"Ġexceptions":5137,"Python":5138,"rectories":5139,"Ġshutil":5140,"Ġpe":5141,"ris":5142,"setting":5143,"generator":5144,"vis":5145,"Ġcoordin":5146,"(\\\"-":5147,"Ġ23":5148,"lert":5149,"DEBUG":5150,"registry":5151,"Ġshared":5152,"ynam":5153,"Ġthreading":5154,"Core":5155,"chemy":5156,"reater":5157,"atom":5158,"ditable":5159,"states":5160,"gis":5161,"symbol":5162,"EMA":5163,"Session":5164,"disp":5165,"Ġmonth":5166,"pred":5167,"Parse":5168,"LOCK":5169,"Ġctypes":5170,"ulation":5171,"drop":5172,"nfor":5173,"getLogger":5174,"setUp":5175,"suite":5176,"Ġzone":5177,"subject":5178,"Ġmanager":5179,"dl":5180,"Ġpermissions":5181,"texcept":5182,"nal":5183,"reader":5184,"Ġfig":5185,"Ġfetch":5186,"ĠFOR":5187,"ĠFree":5188,"validation":5189,"executable":5190,"/\\\\":5191,"PUT":5192,"slice":5193,"partner":5194,"Rou":5195,"Ġnote":5196,".\\\",\\":5197,"USE":5198,"big":5199,"tist":5200,"Ġwrap":5201,"Ġside":5202,"ĠANY":5203,"=\\\"\\\"":5204,"GI":5205,"ified":5206,"Ġnormal":5207,"Ġusage":5208,",-":5209,"tenant":5210,"findall":5211,"Description":5212,"+\\\"":5213,"Ġsym":5214,"Num":5215,"kind":5216,"ttry":5217,"dumm":5218,"clone":5219,"Ġgenerator":5220,"71":5221,"Ġdecode":5222,"rain":5223,"timezone":5224,"Ġ<<":5225,"ordering":5226,"certificate":5227,"environment":5228,"through":5229,"served":5230,"lso":5231,"rl":5232,"sorted":5233,"Ġprivate":5234,")?":5235,"]],":5236,"Ġprob":5237,"agic":5238,"PAR":5239,"ftime":5240,"pn":5241,"issue":5242,"INTER":5243,"ĠĠĠĠĠĠĠĠĠĠĠĠĠĠĠĠĠĠĠĠĠĠĠĠĠĠĠĠĠĠĠĠĠĠĠĠĠĠĠĠ":5244,"HOUT":5245,"Ġpackages":5246,"VALID":5247,"Email":5248,"free":5249,"gments":5250,"SELECT":5251,"'[?":5252,"ber":5253,"wrapper":5254,"ĠImage":5255,"Ġraises":5256,"SV":5257,"Ġdig":5258,"Ġavoid":5259,"ĠĠĠĠĠĠĠĠĠĠĠĠĠĠĠĠĠĠĠĠĠĠĠĠĠĠĠĠĠĠĠĠĠĠĠĠĠĠĠĠĠ":5260,"Bad":5261,"yaml":5262,"Ġep":5263,"ATTR":5264,"Ġexpression":5265,"ĠWITHOUT":5266,"ĠWARRAN":5267,"bul":5268,"getattr":5269,"chedule":5270,"hand":5271,"']))\\":5272,"Impl":5273,"Ġcategory":5274,"Ġsw":5275,"ately":5276,"TIME":5277,"parameter":5278,"pow":5279,"Ġproperties":5280,"begin":5281,"DU":5282,"jav":5283,"dom":5284,"nThe":5285,"tn":5286,"two":5287,"ĠMan":5288,"omment":5289,"registration":5290,"ashboard":5291,"Ġtempfile":5292,"sock":5293,"vol":5294,"units":5295,"strings":5296,"tokens":5297,"handlers":5298,"eve":5299,"scheme":5300,"Ġgrid":5301,"Ġsuite":5302,"SINGLELINE":5303,"Ġtermin":5304,"Ġ###":5305,"proc":5306,"jobs":5307,"rpc":5308,"sage":5309,"eries":5310,"Ġcoef":5311,"ndarray":5312,"ĠInteger":5313,"reference":5314,"\\\\'":5315,"ssl":5316,"Local":5317,"generic":5318,"Ġautomatic":5319,"heritance":5320,"Ġhass":5321,"Ġarrays":5322,"CESS":5323,"Ġflat":5324,"Ġmight":5325,"pto":5326,"article":5327,"lica":5328,"assertHTML":5329,"ABIC":5330,"CD":5331,"MB":5332,"sibility":5333,"Ġdesired":5334,"Ġrecur":5335,"assistant":5336,",)\\":5337,"YR":5338,"best":5339,"cut":5340,"conv":5341,"cessary":5342,"ĠARABIC":5343,"768":5344,"sd":5345,"Ġhelper":5346,"Ġelem":5347,"Location":5348,"sync":5349,"rency":5350,"Timer":5351,"ĠExample":5352,"Ġbelow":5353,"209":5354,"Ġfill":5355,"Ġwin":5356,"Ġorg":5357,"Ġscan":5358,"Ġspecial":5359,"Exten":5360,"ynamic":5361,"logy":5362,"ĠTestCase":5363,"tasks":5364,"Ġsupports":5365,"urses":5366,"itle":5367,"compatible":5368,"Ġpygame":5369,"Ġanswer":5370,"inc":5371,"Ġdeleted":5372,"PositiveIntegerField":5373,"assertHTMLEqual":5374,"uting":5375,"ĠText":5376,"Ġsignature":5377,"Jo":5378,"geo":5379,"Ġsess":5380,"090":5381,"iling":5382,"heet":5383,"predict":5384,"Member":5385,"staticmethod":5386,"BE":5387,"IME":5388,"tables":5389,"Ġthose":5390,"destination":5391,"ident":5392,"Ġ'\\\"":5393,"ĠMulti":5394,"ĠGeo":5395,"tc":5396,"zes":5397,"Ġplayer":5398,"timer":5399,"ĠChar":5400,"dummy":5401,")-":5402,"_{":5403,"ĠTrans":5404,"allclose":5405,"perm":5406,"Ġchain":5407,"Ġkernel":5408,"Comm":5409,"Ġvalidation":5410,"images":5411,"UBLE":5412,"distribute":5413,"locale":5414,"Does":5415,"arguments":5416,"ĠAuthor":5417,"requires":5418,"Ġdat":5419,"isfile":5420,"duction":5421,"expression":5422,"supported":5423,"exportLiteral":5424,"BB":5425,"Fin":5426,"micro":5427,"snapshot":5428,"Ġregex":5429,"ĠDRAW":5430,"NESS":5431,"FLAGS":5432,"Ġpix":5433,"Ġok":5434,"Ġ_,":5435,"Can":5436,"Ġexpi":5437,"Ġenable":5438,"signature":5439,"modified":5440,"ĠBOX":5441,"Ġwarning":5442,"isinstance":5443,"vely":5444,"ĠQtGui":5445,"RF":5446,"standard":5447,"setdefault":5448,"instances":5449,"internal":5450,"012":5451,"SSL":5452,"Ġdistutils":5453,"Ġexecute":5454,"Ġstructure":5455,"JSON":5456,"tten":5457,"tim":5458,"precation":5459,"Ġcompiler":5460,"iteritems":5461,"assign":5462,"power":5463,"oriz":5464,"Ġlower":5465,"0435":5466,"FIX":5467,"dentials":5468,"Qry":5469,"Accessor":5470,"ĠDRAWINGS":5471,"pan":5472,"Profile":5473,":]":5474,"AF":5475,"xff":5476,"Ġtimestamp":5477,"Ġsupp":5478,"You":5479,"*(":5480,"rozen":5481,"Ġ17":5482,"ĠXML":5483,"Enter":5484,"fr":5485,"Ġcell":5486,"ĠAlso":5487,"Ġ42":5488,"Ġinputs":5489,"Validator":5490,"switch":5491,"udio":5492,"decimal":5493,"Ġiteration":5494,"ĠSpa":5495,"merge":5496,"car":5497,"Ġcm":5498,"apply":5499,"bosity":5500,"__.__":5501,"isdir":5502,"Ġround":5503,"NotFound":5504,"ARTIC":5505,"Ġmove":5506,"Ġmatching":5507,"lv":5508,"Ġabove":5509,"rees":5510,"adcast":5511,"Ġderi":5512,"======":5513,"Serializer":5514,"Ġextract":5515,"digits":5516,")\\\")\\":5517,"Cal":5518,"LS":5519,"LATE":5520,"UID":5521,"_\\":5522,"fic":5523,"ĠTests":5524,")')\\":5525,"glob":5526,"pages":5527,"Unit":5528,"lexible":5529,"AUTH":5530,"compress":5531,"Sequence":5532,"Ġworld":5533,"({\\\"":5534,"LOW":5535,"MAIN":5536,"aterial":5537,"same":5538,"Ġretri":5539,"Ġrelease":5540,"Ġinternal":5541,"Ġ/></":5542,"libraries":5543,"Suite":5544,"Ġapply":5545,"agicMock":5546,"google":5547,"Channel":5548,"Ġknow":5549,"Ġseries":5550,"plotlib":5551,"Ġassociated":5552,"->":5553,"Ġed":5554,"Ġutil":5555,"Cre":5556,"ja":5557,"diag":5558,"____":5559,"ĠNode":5560,"999":5561,"Ġhope":5562,"')[":5563,"hort":5564,"Ġdid":5565,"Ġlocale":5566,"ĠIS":5567,"ILLIC":5568,"Ġassume":5569,"YRILLIC":5570,"Mark":5571,"appen":5572,"Ġonce":5573,"Ġchecks":5574,"Ġwebpage":5575,"gree":5576,"records":5577,"ĠCYRILLIC":5578,"Ġtrack":5579,"Ġtransaction":5580,"deredDict":5581,"Ġndarray":5582,"005":5583,"ĠtearDown":5584,"Target":5585,"ĠFROM":5586,"Ġpool":5587,"ĠFoundation":5588,"ae":5589,"vg":5590,"Ġ).":5591,"ani":5592,"versions":5593,"Ġprecision":5594,"optional":5595,"Ġcases":5596,"Port":5597,"2006":5598,"Ġchildren":5599,"My":5600,"fol":5601,"anced":5602,"LED":5603,")(":5604,">'":5605,"Pbb":5606,"defined":5607,"Ġanaly":5608,"andas":5609,"ĠSimple":5610,"lendar":5611,"REQU":5612,"Project":5613,"Ġenabled":5614,"Ġimplemented":5615,"Schema":5616,"listen":5617,"quot":5618,"Ġrv":5619,"urllib":5620,"imal":5621,"ĠArgument":5622,"sumer":5623,"devices":5624,"Ġduring":5625,"ational":5626,"ĠNO":5627,"Ġ50":5628,"ĠnodeName":5629,"EXT":5630,"partition":5631,"ULAR":5632,"2011":5633,"Ġnormalize":5634,"Ġetc":5635,"NotExist":5636,"'[?]',":5637,"erature":5638,"fromHex":5639,"proto":5640,"ĠNOT":5641,"kernel":5642,"Offset":5643,"memory":5644,"(\\\"<":5645,"TEXT":5646,"PIPE":5647,"Author":5648,"rol":5649,"Ġseen":5650,"Post":5651,"should":5652,"Ġinterval":5653,"push":5654,"moves":5655,"()):\\":5656,"layout":5657,"ĠIOError":5658,"migrations":5659,"ĠĠĠĠĠĠĠĠĠĠĠĠĠĠĠĠĠĠĠĠĠĠĠĠĠĠĠĠĠĠĠĠĠĠĠĠĠĠĠĠĠĠĠĠ":5660,"ĠNumber":5661,"Ġtokens":5662,"ILITY":5663,"'.\\":5664,":``":5665,"Ġrequested":5666,"namespaces":5667,"Ġev":5668,"Ġord":5669,"ĠOther":5670,"comments":5671,"=',":5672,"AX":5673,"ace":5674,"vrf":5675,"()),":5676,"extension":5677,"ĠUnicode":5678,"uplicate":5679,"Over":5680,"ertificate":5681,"Ġinner":5682,"Ġmaximum":5683,"elements":5684,"Elements":5685,"Permission":5686,"variables":5687,"Extra":5688,"Ġ(_":5689,"Ġannot":5690,"resolve":5691,"pendent":5692,"CUM":5693,"tect":5694,"Ġinv":5695,"ĠĠĠĠĠĠĠĠĠĠĠĠĠĠĠĠĠĠĠĠĠĠĠĠĠĠĠĠĠĠĠĠĠĠĠĠĠĠĠĠĠĠ":5696,"Const":5697,"maining":5698,"lane":5699,"Ġshell":5700,"2000":5701,"Ġviews":5702,"metrical":5703,"Ġiterable":5704,"ONT":5705,"VERSION":5706,"named":5707,"digest":5708,"ĠAc":5709,"ĠĠĠĠĠĠĠĠĠĠĠĠĠĠĠĠĠĠĠĠĠĠĠĠĠĠĠĠĠĠĠĠĠĠĠĠĠĠĠĠĠĠĠ":5710,"Document":5711,"VAR":5712,"Ġproxy":5713,"Ġunknown":5714,"area":5715,">'\\":5716,"}{":5717,"Ġfun":5718,"Ġfreq":5719,"progress":5720,"Ġyet":5721,"configure":5722,"localhost":5723,"ĠValidationError":5724,"Ġsamples":5725,"readline":5726,"ĠContent":5727,"requency":5728,"Ġclf":5729,"ategy":5730,"inline":5731,"Ġdeprecated":5732,"sgi":5733,"cwd":5734,"selector":5735,"Ġ18":5736,"compare":5737,"\\\"]:\\":5738,"scripts":5739,"Geometry":5740,"Import":5741,"pub":5742,"ĠTable":5743,"party":5744,"Ġstored":5745,"boo":5746,"Ġversions":5747,"origin":5748,"=[\\\"":5749,"decor":5750,"ĠFIT":5751,"ddt":5752,"READ":5753,"Argument":5754,"ĠSystem":5755,"ERS":5756,"updated":5757,"ADD":5758,"FE":5759,"getitem":5760,"scribe":5761,"dap":5762,"=[\\":5763,"Ġcorrectly":5764,"****************":5765,"Ġfix":5766,"cture":5767,"sian":5768,"compute":5769,"crete":5770,"Person":5771,"Ġcorresponding":5772,"BR":5773,"Clean":5774,"coef":5775,"Stack":5776,"ASS":5777,"Ġown":5778,"unic":5779,"expect":5780,"neg":5781,">\\\"":5782,"beta":5783,"wis":5784,"attach":5785,"Ġ\\\")\\":5786,"Ġwell":5787,"atibility":5788,"DoesNotExist":5789,"516":5790,"arrow":5791,"Ġindic":5792,"Ġselection":5793,"={\\":5794,"300":5795,"ĠUN":5796,"Provider":5797,"POSE":5798,"extensions":5799,"7684":5800,"Tab":5801,"fun":5802,"serve":5803,"Ġ[]":5804,"usters":5805,"share":5806,"ĠEvent":5807,"Ġordering":5808,"LIST":5809,"BACK":5810,"ullable":5811,"condition":5812,"nomi":5813,"track":5814,"Ġcounter":5815,"Ame":5816,"Ġ64":5817,"details":5818,"Ġsets":5819,"Contains":5820,"DL":5821,"Ġpid":5822,"cover":5823,"Ġmac":5824,"theclass":5825,"ializers":5826,"ceive":5827,"exclude":5828,"astype":5829,"Enum":5830,"gent":5831,"notification":5832,"apter":5833,"Ġcommit":5834,"ĠCal":5835,"Regex":5836,"abstract":5837,"Ġprev":5838,"zzzz":5839,"amera":5840,"prog":5841,"requirements":5842,"multiple":5843,"live":5844,"ands":5845,"jor":5846,"Ġredistribute":5847,"setEqual":5848,"period":5849,"Ġtimezone":5850,"criptor":5851,"havior":5852,"Random":5853,"Ġpayload":5854,"suffix":5855,"ialized":5856,"rtype":5857,"tar":5858,"Ġdecor":5859,"ERCH":5860,"Ġsomething":5861,"variance":5862,"mc":5863,"strftime":5864,"Ġsubject":5865,"distribution":5866,"Ġbro":5867,"Byte":5868,".'\\":5869,"theta":5870,"ĠPARTIC":5871,")'\\":5872,"NG":5873,"effect":5874,"ability":5875,"dr":5876,"tconfig":5877,"arma":5878,"ctx":5879,"Ġnecessary":5880,"asy":5881,"lies":5882,"ĠInter":5883,"pendency":5884,"Ġmetric":5885,"ERCHANT":5886,"elem":5887,"rator":5888,"Ġsaved":5889,"Ġmd":5890,"ĠOnly":5891,"bgp":5892,"Ġadditional":5893,"ĠRuntimeError":5894,"Ġwarran":5895,"Big":5896,"ssh":5897,"Ġconstraint":5898,"ABILITY":5899,"Ġactually":5900,"ĠWARRANTY":5901,"gamma":5902,"Ġdefine":5903,"Exit":5904,"URPOSE":5905,"Ġrepresentation":5906,"Level":5907,"andidate":5908,"ĠWindows":5909,"Ġwarranty":5910,"trace":5911,"Attr":5912,"foreign":5913,"2099":5914,"bits":5915,"ites":5916,"()),\\":5917,"peri":5918,"Layer":5919,"Ġagainst":5920,"ĠOptional":5921,"400":5922,"Pick":5923,"ĠPURPOSE":5924,"Ġmenu":5925,"Ġcert":5926,"500":5927,"IZ":5928,"ny":5929,"lyph":5930,"CONFIG":5931,"ĠFITNESS":5932,"ĠPARTICULAR":5933,"ERCHANTABILITY":5934,"Bin":5935,"separ":5936,"(\\\".":5937,"Ġec":5938,"Choice":5939,"Ġ]":5940,"ĠSIGN":5941,"Ġunits":5942,"Ġtranslation":5943,"Ġignored":5944,"Only":5945,"/')\\":5946,"540":5947,"CLI":5948,"=='":5949,"cial":5950,"license":5951,"archive":5952,"layers":5953,"Ġwords":5954,"Tool":5955,"0438":5956,"6613":5957,"Ġlinks":5958,"Descriptor":5959,"gd":5960,"quare":5961,"Ġstat":5962,"Ġoperations":5963,"ribution":5964,"alent":5965,"Ġ00":5966,"ĠSta":5967,"ĠLine":5968,"....":5969,"Ġfactor":5970,"Ġ{}\\\".":5971,"Ġdocumentation":5972,"ntaxError":5973,"Ġpairs":5974,"ĠOSError":5975,"America":5976,"sources":5977,"Ġturn":5978,"ĠMERCHANTABILITY":5979,"Ġengine":5980,"Component":5981,":])\\":5982,"Del":5983,"dimen":5984,"Ġseq":5985,"QuerysetEqual":5986,".'":5987,"LD":5988,"\\\"+":5989,"timi":5990,"Ġhappen":5991,"outube":5992,"ĠDatabase":5993,"Cannot":5994,"nl":5995,"assertQuerysetEqual":5996,"listdir":5997,"rence":5998,"imate":5999,"counts":6000,"ĠModule":6001,"quivalent":6002,"SU":6003,"oted":6004,"ensor":6005,"Rep":6006,"helpers":6007,"dates":6008,"Ġcompare":6009,"processing":6010,"Ġappropri":6011,".)\\":6012,"ools":6013,"{\\\"":6014,"\\\"][\\\"":6015,"Charac":6016,"channels":6017,"nkTheme":6018,"Ġinside":6019,"Ġacti":6020,"pickle":6021,"tras":6022,"configuration":6023,"Policy":6024,"Ġimages":6025,"mostEqual":6026,"PASS":6027,"FC":6028,"Ġts":6029,"Ġ22":6030,"templates":6031,"packet":6032,"disk":6033,"assertIsInstance":6034,"SIGN":6035,"bro":6036,"baz":6037,"AlmostEqual":6038,"identity":6039,"MENT":6040,"Sup":6041,"aws":6042,"browser":6043,"reason":6044,"alchemy":6045,"cei":6046,"Ġcompat":6047,"HERE":6048,"ier":6049,"mid":6050,"seed":6051,"delay":6052,"Ġhour":6053,"Ġupload":6054,"Ġdays":6055,"identifier":6056,"lah":6057,"Redirect":6058,"pture":6059,"collect":6060,",\\\"":6061,"Ġpin":6062,"Required":6063,"enerp":6064,"APP":6065,"Ġhook":6066,"Ġdirectly":6067,"ules":6068,"services":6069,"Ġpositive":6070,"StringIO":6071,"segment":6072,"rable":6073,"Ġtool":6074,"Copy":6075,"Unknown":6076,"Ġboto":6077,"Ġ19":6078,"ĠLE":6079,"functions":6080,"FIEL":6081,"ĠArray":6082,"integ":6083,"Ġswitch":6084,"loss":6085,"RED":6086,"Files":6087,"Ġfilters":6088,"Ġestimator":6089,"poll":6090,"Route":6091,"Ġreader":6092,"rag":6093,"Ġwrong":6094,"payload":6095,"Ġexclude":6096,"ĠNet":6097,"irth":6098,"alization":6099,"1111":6100,"allowed":6101,"Root":6102,"OM":6103,"Ġuuid":6104,"Ġhead":6105,"ROUP":6106,"Ġchoice":6107,"_=":6108,"Ġexact":6109,"resc":6110,"Ġtyp":6111,"cleaned":6112,"AV":6113,"Next":6114,"tile":6115,"\\\"\\\"\\\")\\":6116,"ĠHe":6117,"Dialog":6118,"constants":6119,".\\\\":6120,"ibr":6121,"numeric":6122,"0442":6123,"undle":6124,"Web":6125,"Ġarchive":6126,"Func":6127,"reduce":6128,"once":6129,"ater":6130,"verti":6131,"previous":6132,"ĠUT":6133,"Could":6134,"TESTFN":6135,"Ġhomeassistant":6136,"boolean":6137,"BLE":6138,"Rate":6139,"zo":6140,"}}":6141,"under":6142,"resses":6143,"ĠGE":6144,"ĠThese":6145,"Ġaddr":6146,"assification":6147,"Metadata":6148,"Ġfd":6149,"']),":6150,"aged":6151,"Ġgame":6152,"Ġlow":6153,"prev":6154,"ipv":6155,"DAT":6156,"GT":6157,"OUR":6158,"fb":6159,"wb":6160,"Ġ\\\"_":6161,"visit":6162,"Reader":6163,"Print":6164,"Ġhex":6165,"tenv":6166,"Ġpolicy":6167,"nE":6168,"small":6169,"'])":6170,"Ġsuffix":6171,"Ġvisit":6172,"weights":6173,"3456789":6174,"uses":6175,"Ġfi":6176,"Ġ102":6177,"Decimal":6178,"frac":6179,"Broker":6180,"Lock":6181,"Ġ'+":6182,"places":6183,"Ġlists":6184,"closed":6185,"CONT":6186,"ĠArgs":6187,"rupt":6188,":-":6189,"gm":6190,"Ġ?":6191,"deep":6192,"mem":6193,"tyle":6194,"olved":6195,"pient":6196,"2014":6197,"pipeline":6198,"kel":6199,"Ġfmt":6200,"Ġrecords":6201,"ĠAll":6202,"ARY":6203,"Ġappe":6204,"dims":6205,"Ġtestdir":6206,"ĠEnsure":6207,"Mis":6208,"srid":6209,"Ġpad":6210,"unity":6211,"EVENT":6212,"AIL":6213,"Ġ'#":6214,"')]\\":6215,"rank":6216,"Ġpixel":6217,"break":6218,"lev":6219,"Load":6220,"``\\":6221,"IPT":6222,"ua":6223,"Ġfname":6224,"while":6225,"Ph":6226,"bal":6227,"ascript":6228,"Ġdraw":6229,"ĠDOUBLE":6230,"high":6231,"{{":6232,"Ġ'',\\":6233,"Ġcenter":6234,"visible":6235,"Ġdev":6236,"deleted":6237,"ulari":6238,"conver":6239,"vertical":6240,"shell":6241,"circ":6242,"0940":6243,"Ġurlparse":6244,"2013":6245,"blue":6246,"alth":6247,"analy":6248,"Ġtakes":6249,"Ġslice":6250,"unlink":6251,"chor":6252,"etc":6253,"='',":6254,"Ġnothing":6255,"ĠInvalid":6256,"Ġnegative":6257,"Timeout":6258,"iterator":6259,"Struct":6260,"capa":6261,"Ġfake":6262,"Ġ|\\":6263,"Ġ{}),\\":6264,")',\\":6265,")],\\":6266,"Font":6267,"ctive":6268,"dag":6269,"gb":6270,"ium":6271,"__()\\":6272,"orizont":6273,"tl":6274,"ĠTEST":6275,"ĠFORM":6276,"ports":6277,"*'":6278,"Flexible":6279,"LL":6280,"cce":6281,"href":6282,"oauth":6283,"Ġdump":6284,"Ġbig":6285,"plain":6286,"Ġpower":6287,"Parent":6288,"yles":6289,"Ġpr":6290,"ĠRemove":6291,"Ġperiod":6292,"ited":6293,"Ġcached":6294,"ĠSome":6295,"week":6296,"!!":6297,"GS":6298,"pad":6299,"Ġpol":6300,"ĠEX":6301,"Ġtasks":6302,"books":6303,"Ġteam":6304,"'ll":6305,"(\\\"\\\"":6306,")\\\",\\":6307,"BUT":6308,"DD":6309,"yment":6310,"Ini":6311,"translate":6312,"metrics":6313,"Av":6314,"cnt":6315,"Ġfuture":6316,"comb":6317,"Ġbranch":6318,"external":6319,"resolver":6320,"2012":6321,"widgets":6322,"Mapping":6323,"Msg":6324,"dc":6325,"ring":6326,"Ġbasic":6327,"partial":6328,"ARK":6329,"BASE":6330,"Uti":6331,"ĠCH":6332,"ERT":6333,"cipient":6334,"ONG":6335,"Ġclone":6336,"Names":6337,"aggregate":6338,"Constraint":6339,"Spec":6340,"nm":6341,"utdown":6342,"Ġ29":6343,"riteri":6344,"authors":6345,"transaction":6346,"coeff":6347,"rive":6348,"ynch":6349,"Ġgood":6350,"Ġattempt":6351,"535":6352,"quences":6353,"sistent":6354,"Success":6355,"RC":6356,"atar":6357,"uess":6358,"127":6359,"Named":6360,"Ġlisten":6361,"Database":6362,"diffe":6363,"HEAD":6364,"FlexibleForeignKey":6365,"Zip":6366,"('_":6367,"Ġlarge":6368,"8859":6369,"when":6370,"Ġ\\\"{{":6371,"/>.\\":6372,"Show":6373,"asset":6374,"Ġbits":6375,"quality":6376,"=\\\"/":6377,"Ġknown":6378,"884":6379,"Ġmodified":6380,"Ġincluded":6381,"Obj":6382,"alf":6383,"des":6384,"mous":6385,"contact":6386,"Ġstates":6387,"Ġscheme":6388,"radius":6389,"cesses":6390,"LANG":6391,"Ġ\\\"(('":6392,"cookies":6393,"sites":6394,"need":6395,"Ġfailure":6396,"Ġtzinfo":6397,"sertionError":6398,"202":6399,"Ġur":6400,"ĠImp":6401,"########################################################################":6402,"509":6403,":</":6404,"AMPLE":6405,"ĠValid":6406,"Ġast":6407,"forward":6408,"ĠOne":6409,"Ġgeo":6410,"(_(\\\"":6411,"Ġdepth":6412,"Ġstrip":6413,"/'":6414,"cms":6415,"Ġstar":6416,"SSION":6417,"Ġcalcul":6418,"Ġaxes":6419,"Ġcomponents":6420,"IST":6421,"Wor":6422,"gz":6423,"yper":6424,"Ġicon":6425,"Close":6426,">),\\":6427,"Host":6428,"MC":6429,"em":6430,"uc":6431,"tit":6432,"ges":6433,"builder":6434,"([^":6435,"speed":6436,"ĠCharField":6437,"Ġescape":6438,"antity":6439,"Ġsm":6440,"Ġ[(\\\"":6441,"STATE":6442,"REE":6443,"LETE":6444,"fragment":6445,"symmetrical":6446,"Ġmatplotlib":6447,"pache":6448,"ICAL":6449,"\\\"><":6450,"Classifier":6451,"Ġhostname":6452,"accept":6453,"formed":6454,"funcs":6455,"normalize":6456,"Ġdestination":6457,"website":6458,"tzinfo":6459,"descriptor":6460,"()]\\":6461,"iform":6462,"Ġloaded":6463,"pher":6464,"specific":6465,"So":6466,"ndim":6467,"tm":6468,"onal":6469,"Ġpur":6470,"tend":6471,"Ġdisk":6472,"stdin":6473,"EP":6474,"NOT":6475,"threshold":6476,"ASH":6477,"ĠCONF":6478,"/(":6479,"green":6480,"ctions":6481,"imators":6482,"/\\\\/\\\\":6483,"_):\\":6484,"oc":6485,"Ġsock":6486,"utput":6487,"running":6488,"Ġbug":6489,"nThis":6490,"ĠIDL":6491,"CADE":6492,"bd":6493,"blit":6494,"Ġcp":6495,"modulestore":6496,"Ġgtk":6497,"boot":6498,"ASCADE":6499,"which":6500,":`~":6501,"ferred":6502,"Ġautomatically":6503,"cmp":6504,"dele":6505,"Ġunpack":6506,"Ġless":6507,"csrf":6508,"Ġfactory":6509,"dispatch":6510,"++":6511,"VI":6512,"nI":6513,"erry":6514,"peed":6515,"timedelta":6516,"scr":6517,"Ġdom":6518,"Ġconstants":6519,"nelse":6520,"MD":6521,"Te":6522,"hat":6523,"shared":6524,"ĠNew":6525,"CTION":6526,"ives":6527,"SAP":6528,"Ġ'&":6529,"Ġ')\\":6530,"Ġdue":6531,"Ġdele":6532,"xtures":6533,"background":6534,"Loop":6535,"Ġdimension":6536,"TraceSource":6537,"YPE":6538,"fri":6539,"ysql":6540,"bounded":6541,"divid":6542,"600":6543,"Ġdrop":6544,"Ġ255":6545,"aliases":6546,"Unable":6547,"Send":6548,"getvalue":6549,"Lookup":6550,"streams":6551,"Ġtables":6552,"Small":6553,"UD":6554,"Ġarr":6555,"Ġ}}\\\"\\":6556,"cip":6557,"voke":6558,"coords":6559,"Ġ\\\"\\\"\\\"<":6560,"Temp":6561,"cum":6562,"deprecated":6563,"ĠThere":6564,"metaclass":6565,"follow":6566,"Title":6567,"ggle":6568,"ĠNotes":6569,"Changed":6570,"TEMPLATE":6571,"wisted":6572,"*.":6573,"bed":6574,"pending":6575,"Ġinspect":6576,"Ġyaml":6577,"Ġxmodule":6578,"compo":6579,"ĠBe":6580,"Ġ/>\\":6581,"ashes":6582,"Entity":6583,"ActionField":6584,"orizontal":6585,"afe":6586,"king":6587,"watch":6588,"Ġflow":6589,"Ġinline":6590,"lier":6591,"illa":6592,"Ġbox":6593,"disable":6594,"3333":6595,"Ġappropriate":6596,"Ġpush":6597,"ĠĠĠĠĠĠĠĠĠĠĠĠĠĠĠĠĠĠĠĠĠĠĠĠĠĠĠĠĠĠĠĠĠĠĠĠĠĠĠĠĠĠĠĠĠ":6598,"Parameter":6599,"bum":6600,"Proxy":6601,"Scope":6602,"gres":6603,"vend":6604,"mentation":6605,"imit":6606,"Ġ...\\":6607,"Configured":6608,"aodv":6609,"slot":6610,"tor":6611,"lict":6612,"Ġ28":6613,"lencode":6614,"latest":6615,"Application":6616,"GY":6617,"Migration":6618,"`.":6619,"ntest":6620,"ATOR":6621,"Ġpartial":6622,"Seq":6623,"Ġminimum":6624,"ATED":6625,"EE":6626,"pd":6627,"Ġcat":6628,"Information":6629,"Ġsegment":6630,"Ġmachine":6631,"'),)\\\",":6632,"liance":6633,"],[":6634,"IND":6635,"Storage":6636,"Enable":6637,"SERVER":6638,"ornado":6639,"ibrary":6640,"101":6641,"Hello":6642,"Ġes":6643,"alg":6644,"notify":6645,"Optional":6646,"ASE":6647,"embed":6648,"\\\"'":6649,"inator":6650,"Ġbs":6651,"assertAlmostEqual":6652,"calls":6653,"1234":6654,"Ġallows":6655,"Ġfeed":6656,"nomial":6657,"Ġrecent":6658,"Ġden":6659,"Req":6660,"Ġ31":6661,"ĠVersion":6662,"Ġ''.":6663,"thumbnail":6664,"0902":6665,"posix":6666,"ATURE":6667,"POINT":6668,"CUR":6669,"Norm":6670,"izer":6671,"nadd":6672,"inclu":6673,"Ġcy":6674,"clar":6675,"Ġeffect":6676,"Ġresources":6677,"without":6678,"rowse":6679,"Ġcreating":6680,":\\\",":6681,"mes":6682,"Ġtx":6683,"loor":6684,"iterable":6685,"Cleanup":6686,"ECT":6687,"Volume":6688,"WAR":6689,"nDATA":6690,"axes":6691,"DER":6692,"II":6693,"LY":6694,"})":6695,"Ġtb":6696,"Ġprop":6697,"gramm":6698,"members":6699,"structure":6700,"Ġbetter":6701,"writer":6702,"Ġdimensions":6703,"'<":6704,"=('":6705,"got":6706,"patterns":6707,"vlan":6708,"Ġmag":6709,"ĠOR":6710,"Comple":6711,"chars":6712,"Ġsyntax":6713,"bet":6714,"tot":6715,"uch":6716,"covery":6717,"exact":6718,"igrate":6719,"Ġprogress":6720,"tence":6721,"Ġcreation":6722,"ratio":6723,"ĠFoo":6724,"Ġmail":6725,"ouble":6726,"topic":6727,"OPT":6728,"ĠOrderedDict":6729,"ather":6730,"Ġloss":6731,"trip":6732,"velop":6733,"ĠPerson":6734,"ĠUpdate":6735,"cu":6736,"inheritance":6737,"rew":6738,"Ġdup":6739,"Inline":6740,"notes":6741,"ĠLog":6742,"returns":6743,"671":6744,"Ġfails":6745,"CASCADE":6746,"Right":6747,"ros":6748,"Ġbegin":6749,"Ġmade":6750,"linear":6751,"ĠDataFrame":6752,"pairs":6753,"prob":6754,"Ġrate":6755,"Ġjs":6756,"atrices":6757,"Ġcalling":6758,"mited":6759,"Ġobtain":6760,"Sum":6761,"saved":6762,"Ġ\\\"\\\")\\":6763,"sib":6764,"ilt":6765,"ders":6766,"Ġserialize":6767,"actual":6768,"(':":6769,">',":6770,"csr":6771,"[:]\\":6772,"finished":6773,"(',":6774,"Poly":6775,"Sec":6776,"Script":6777,"ko":6778,"ĠWHERE":6779,"Ġleg":6780,"submit":6781,"ĠInput":6782,"Ġregistered":6783,"Ġactions":6784,"gories":6785,"Ġtraining":6786,"STRING":6787,"AccountField":6788,"CUST":6789,"Http":6790,"Ġ*',":6791,"ĠNe":6792,"Ġitself":6793,"neighbors":6794,"Exp":6795,"Ġconstant":6796,"Ġbook":6797,"Left":6798,"Generator":6799,"ĠDEFAULT":6800,"dashboard":6801,"ĠAbstract":6802,"Ġdiag":6803,"preview":6804,"KEN":6805,"\\\"%":6806,"Ġsur":6807,"0925":6808,"sqlite":6809,"morph":6810,"wsgi":6811,"tice":6812,"asure":6813,"ĠSh":6814,"Ġsec":6815,"ĠMessage":6816,"INF":6817,"placeholder":6818,"Ġface":6819,"ĠAnsibleModule":6820,".+?":6821,"emon":6822,"filepath":6823,"ably":6824,"ToOne":6825,"Ġsymbol":6826,"Ġmasked":6827,"rolled":6828,"Ġpandas":6829,"ĠFunction":6830,"quet":6831,"bucket":6832,"Ġchr":6833,"annotate":6834,"FILES":6835,"ĠGeometry":6836,"allel":6837,"Job":6838,"fk":6839,"pin":6840,"ĠSeries":6841,"}\\\"":6842,"ĠNULL":6843,"Ġsimil":6844,"solution":6845,"ye":6846,"Inve":6847,"Ġalign":6848,"requests":6849,"runtime":6850,"symbols":6851,"mongo":6852,"va":6853,"repeat":6854,"definition":6855,"utation":6856,"Ġnewline":6857,"checker":6858,"caten":6859,"Ġworking":6860,"Ġrendered":6861,"editor":6862,"cremental":6863,"ĠLEFT":6864,"+',":6865,"}\\\\":6866,"Settings":6867,"Ġsetuptools":6868,"assertIsNone":6869,")],":6870,",),":6871,"Comment":6872,"]).":6873,"Ġms":6874,"igen":6875,"Ġrng":6876,"Ġsimp":6877,"spam":6878,"Ġdriver":6879,"Ġbl":6880,"ĠRegs":6881,"Pool":6882,"Ġauthentication":6883,"Please":6884,"cancel":6885,"ensure":6886,"roperly":6887,"unexpected":6888,"Ġgit":6889,"0440":6890,"Ġretry":6891,"parsed":6892,"lineno":6893,"colors":6894,"refresh":6895,"contenttypes":6896,"Directory":6897,"Ġendpoint":6898,"Article":6899,"Na":6900,"eps":6901,"jac":6902,"Ġouter":6903,"ula":6904,"Ġappend":6905,"UTF":6906,"Ġtrace":6907,"Ġsqlalchemy":6908,"versal":6909,"ĠBook":6910,"atal":6911,"ĠSession":6912,"Ġdescriptor":6913,"Ġdim":6914,"Ġlang":6915,"Ġinterpre":6916,"CUMENT":6917,"Investor":6918,"dn":6919,"nv":6920,"seen":6921,"Ġaverage":6922,"Ġdmp":6923,"Ġgets":6924,"crypted":6925,"Ġterm":6926,"Ġdetermine":6927,"Ġce":6928,"Ġ([":6929,"Ġcompile":6930,"Ġquote":6931,"actor":6932,"editable":6933,"nA":6934,"asse":6935,"Ġequivalent":6936,"LOGGER":6937,"NING":6938,"Style":6939,"tol":6940,"Ġcla":6941,"Ġdependencies":6942,"ferer":6943,"Ġ{},":6944,"ffffffff":6945,"ĠOtherwise":6946,"SIG":6947,"tialized":6948,"ERGY":6949,"expand":6950,"Django":6951,"tu":6952,"Ġ40":6953,"updates":6954,"=[]\\":6955,"Bounded":6956,"Obs":6957,"Ġsmall":6958,"Ġind":6959,"Ġbot":6960,"ulator":6961,"parame":6962,"ĠAT":6963,"changes":6964,"Ġorigin":6965,"xxxxxxxx":6966,"ĠQuery":6967,"dividual":6968,"Ed":6969,"installed":6970,"ĠCan":6971,"ĠNow":6972,"Nodes":6973,"plural":6974,"ĠENERGY":6975,"periment":6976,"[]":6977,"rst":6978,"vor":6979,"Ġ\\\"\\\"\\\")\\":6980,"lenium":6981,"Ġresolve":6982,"Ġcomments":6983,"Mon":6984,"NC":6985,"Wri":6986,"ĠTree":6987,"ORIZ":6988,"\\\")),\\":6989,"Serialize":6990,"destroy":6991,"Api":6992,"Ġamount":6993,"erred":6994,"Ġtol":6995,"ĠPost":6996,"Ġ{}'.":6997,"errypy":6998,"mas":6999,"Ġdummy":7000,"vie":7001,"tral":7002,"codec":7003,"ĠUP":7004,"0948":7005,"########################":7006,"Ġserializer":7007,"mtree":7008,"stallation":7009,"Ġlayout":7010,"Role":7011,"(\\\"\\\"\\\"\\":7012,"Ġsin":7013,"Ġowner":7014,"Ġexternal":7015,"agers":7016,"currency":7017,"Ġrepository":7018,"review":7019,"ortran":7020,"anging":7021,"')))\\":7022,"Ġfilenames":7023,"ĠHAS":7024,"subset":7025,"Ġgeom":7026,"Ġblocks":7027,"secure":7028,"vid":7029,"Ġ----------------------------------------------------------------":7030,"roid":7031,"Ġssl":7032,"adv":7033,"ĠTry":7034,"lying":7035,"([(":7036,"Ġvars":7037,"Flag":7038,"MAP":7039,"Ġsources":7040,"Ġsolution":7041,"itude":7042,"isect":7043,"0441":7044,"Ġrepresenting":7045,"EMAIL":7046,"family":7047,"dec":7048,"Ġ21":7049,"=\\\"%":7050,"Ġdirectories":7051,"negative":7052,"Ġtimer":7053,"Ġnever":7054,"DOMAIN":7055,")}":7056,")\\\"\\\"\\\"\\":7057,"Non":7058,"construct":7059,"appro":7060,"matches":7061,"Ġopenerp":7062,"Unicode":7063,"Operation":7064,"Ġoccurred":7065,"Ġmerge":7066,"Pos":7067,"nr":7068,"Ġ~":7069,"Ġaround":7070,"kemon":7071,"0923":7072,"Ġregistry":7073,"Ġcounts":7074,"SAPT":7075,"Ho":7076,"MagicMock":7077,"deri":7078,"dependent":7079,"activity":7080,"ĠAny":7081,"Ġconnections":7082,"uffle":7083,"roperlyConfigured":7084,"rev":7085,"retry":7086,"relative":7087,"vey":7088,"ĠWor":7089,"Ġchecking":7090,"steps":7091,"cycle":7092,"Ġcharset":7093,"good":7094,"~~~~~~~~":7095,"sla":7096,"Ġembed":7097,"ĠLO":7098,"Ġhosts":7099,"ĠDoc":7100,"ĠResponse":7101,"ĠPOST":7102,"mul":7103,"ned":7104,"Ġinf":7105,"digit":7106,"blems":7107,"Ġbehavior":7108,"Ġcompatibility":7109,"Alter":7110,"teractive":7111,"onymous":7112,"Stop":7113,"swap":7114,"litext":7115,"Ġ[],\\":7116,"Ġgamma":7117,"Ġanything":7118,"7528":7119,"white":7120,"webpage":7121,"ctypes":7122,"Find":7123,"ĠDIG":7124,"Expected":7125,"CHE":7126,"Collection":7127,"^{":7128,"Ġurls":7129,"Ġnone":7130,"serv":7131,"Cookie":7132,"Ġclick":7133,"bulk":7134,"Deta":7135,"First":7136,"HBC":7137,"Top":7138,"native":7139,"wkt":7140,"Ġradius":7141,"Ġapps":7142,"izard":7143,"hide":7144,"Feature":7145,"Ġprovides":7146,"PASSWORD":7147,"PK":7148,"own":7149,"px":7150,"pdf":7151,"arrays":7152,"Ġcap":7153,"Ġasset":7154,"Ġroute":7155,"processor":7156,"---+":7157,"ynchron":7158,"pat":7159,"Ġtgt":7160,"Ġslug":7161,"Ġdot":7162,"formset":7163,"creation":7164,"Ġvery":7165,"ĠDecimal":7166,"Book":7167,"CF":7168,"ront":7169,"Ġ\\\"[":7170,"Ġmigration":7171,"props":7172,"IDL":7173,"Failure":7174,">\\\"\\":7175,"Ġwon":7176,"START":7177,"Ġcodecs":7178,"AddressValue":7179,"Ġupper":7180,"Ġchunks":7181,"ĠBuild":7182,"precationWarning":7183,"clf":7184,"nume":7185,"sli":7186,"cost":7187,"ĠFOUR":7188,"Ġarea":7189,"REQUEST":7190,"published":7191,"Ġred":7192,"cool":7193,"both":7194,"Ġunsigned":7195,"ticular":7196,"management":7197,"SCR":7198,"Ġcoefficient":7199,"average":7200,"hist":7201,"Ġqui":7202,"prep":7203,"former":7204,"loading":7205,"dence":7206,"Ġmetrics":7207,"inct":7208,"Ġnested":7209,"Ġbasestring":7210,"voice":7211,"Ġbackwards":7212,"Ġagent":7213,"Geo":7214,"Ġhandling":7215,"yyyy":7216,"Extractor":7217,"Ġquestion":7218,"0002":7219,"ĠCS":7220,"signals":7221,":/":7222,"rome":7223,"Ġnb":7224,"Ġugettext":7225,"ĠRel":7226,"controller":7227,"ĠSpatial":7228,"Characters":7229,"morphic":7230,"Space":7231,"VICE":7232,"draft":7233,"teri":7234,"ano":7235,"Ġexamples":7236,"tabs":7237,"ĠCode":7238,"Ġdevices":7239,"ĠFe":7240,"iff":7241,"Ġweek":7242,"based":7243,"STATIC":7244,"Last":7245,"dm":7246,"sho":7247,"walk":7248,"Ġ^":7249,"tions":7250,"####\\":7251,"Ġdelay":7252,"Conn":7253,"REF":7254,"subnet":7255,"ĠCoun":7256,"Ġworker":7257,"plus":7258,"itespace":7259,"Make":7260,"Usage":7261,"Ġthings":7262,"Ġpag":7263,"ells":7264,"003":7265,"Ġ27":7266,"Ġargparse":7267,"Ġwidgets":7268,"Ġ-----\\":7269,"mediate":7270,"Ġ1024":7271,"ĠDIGIT":7272,"'m":7273,">%":7274,"Limit":7275,"Single":7276,"entities":7277,"coordin":7278,"irt":7279,"videos":7280,"Save":7281,"xfe":7282,"Ġwarn":7283,"ages":7284,"Ġdirection":7285,"ople":7286,"Ġnotification":7287,"Ġbucket":7288,"mkdir":7289,"IAL":7290,"tI":7291,"revision":7292,"upon":7293,"ressions":7294,"lists":7295,"Ġ500":7296,"Coun":7297,"Ġlazy":7298,"Unexpected":7299,"Encoding":7300,"../../":7301,"titude":7302,"tire":7303,"upgrade":7304,"ĠAnd":7305,"pology":7306,"world":7307,"Testing":7308,"Enabled":7309,"Ġgeneric":7310,"OrderField":7311,"scalar":7312,"GROUP":7313,"MT":7314,"_[":7315,"eros":7316,"Ġproperly":7317,"Ġrunner":7318,"inventory":7319,"Ġfrozen":7320,"**\\":7321,"tracker":7322,"Ġlinear":7323,"tinuous":7324,"Ġitertools":7325,"COMMAND":7326,"/'\\":7327,"Custom":7328,"bg":7329,"Ġable":7330,"Ġfo":7331,"ĠObject":7332,"Ġwritten":7333,"Ġsupplied":7334,"dns":7335,"teps":7336,"Ġsrv":7337,"cog":7338,"ĠClo":7339,"ĠFirst":7340,"Ġparticular":7341,">',\\":7342,"EC":7343,"Sample":7344,"karma":7345,"land":7346,"xpath":7347,"ĠValue":7348,"stub":7349,"anis":7350,"Ġsnapshot":7351,"Ġsensor":7352,"prepare":7353,"Ġapplied":7354,"DOCUMENT":7355,"DULE":7356,"JECT":7357,"strap":7358,"Ġcen":7359,"Ġrect":7360,"peer":7361,"ĠTra":7362,"ĠHo":7363,"subs":7364,"ADATA":7365,"Ġclosed":7366,"/{":7367,"ench":7368,"verification":7369,"Ġmk":7370,"ĠCl":7371,"ĠVariable":7372,"Filename":7373,"EXAMPLE":7374,"Popen":7375,"SUB":7376,"bus":7377,"###":7378,"runner":7379,"Ġdisabled":7380,"charac":7381,"Configuration":7382,"Ġextensions":7383,"ĠVerify":7384,"hooks":7385,"Ġconverted":7386,"parametri":7387,"dy":7388,"ered":7389,"uro":7390,"Ġklass":7391,"Ġdirs":7392,"sender":7393,"ĠAssertionError":7394,"cart":7395,"sist":7396,"['_":7397,"ĠCur":7398,"Ġfilepath":7399,"ĠIni":7400,"Args":7401,"Ġexecutable":7402,"Runner":7403,"Backend":7404,"IVE":7405,"ama":7406,"amount":7407,"gmail":7408,"jpg":7409,"vc":7410,"sensor":7411,"allen":7412,"algorithm":7413,"Ġreduce":7414,"confirm":7415,"about":7416,"Ġstarting":7417,"Ġbackground":7418,"EVT":7419,"Ġstrict":7420,"Identifier":7421,"Site":7422,"|\\\\":7423,"Ġfixed":7424,"Ġnx":7425,"versed":7426,"does":7427,"traceback":7428,"Ġperson":7429,"Ġtargets":7430,"operation":7431,"sigma":7432,"FIELD":7433,"Cell":7434,"az":7435,"rename":7436,"rected":7437,"Ġcir":7438,"edu":7439,"Ġadding":7440,"Ġbuiltin":7441,"Ġsuccessfully":7442,".',\\":7443,"Future":7444,"tw":7445,"Ġ'[":7446,"Ġpie":7447,"Ġtar":7448,"Ġuv":7449,"fast":7450,"REG":7451,"Ġzipfile":7452,"ĠImproperlyConfigured":7453,",<":7454,"Bit":7455,"WARE":7456,"birth":7457,"jax":7458,"rstrip":7459,"scores":7460,"Ġvirtual":7461,"serializer":7462,"lopen":7463,"more":7464,"ulated":7465,"Ġpredi":7466,"tokenQueue":7467,"zon":7468,"define":7469,"machine":7470,"ĠFind":7471,"TOKEN":7472,"flatten":7473,"javascript":7474,"AME":7475,"dup":7476,"Ġcry":7477,"ctools":7478,"Ġ(?":7479,"connected":7480,"Ġcontact":7481,"Ġprompt":7482,"INK":7483,"wever":7484,"outputs":7485,"SIBLE":7486,"Ġiterator":7487,"Ġfragment":7488,"FD":7489,"Handle":7490,"Ġbind":7491,"program":7492,"ĠPath":7493,"addon":7494,"phase":7495,"ario":7496,"disabled":7497,"edges":7498,"ĠLoad":7499,"ags":7500,"ori":7501,"Ġindicate":7502,"Ġ()\\":7503,"Ġexclu":7504,"Ġrank":7505,"Fields":7506,"comparison":7507,"nCThostFtdcQry":7508,"fully":7509,"slash":7510,">,<":7511,"Gra":7512,"TS":7513,"Use":7514,"iki":7515,"ĠCity":7516,"RECT":7517,"lerance":7518,"statement":7519,"arest":7520,"Ġreading":7521,"finite":7522,"Ġscalar":7523,"Ġtk":7524,"Ġbrowser":7525,"quared":7526,"trunc":7527,"ĠMigration":7528,"ĠRIGHT":7529,"DELETE":7530,"Ġtex":7531,"witter":7532,"ĠDict":7533,"ACTER":7534,"Ġsqrt":7535,"SCRIPT":7536,"#----------------------------------------------------------------":7537,"FS":7538,"browse":7539,"pm":7540,"mesh":7541,"dialog":7542,"Ġeval":7543,"Ġrules":7544,"Ġproto":7545,"splitlines":7546,"ava":7547,"ĠSelect":7548,"CLIENT":7549,"SY":7550,"Url":7551,"xi":7552,"dif":7553,"clusters":7554,"))\"":7555,"Ġwriting":7556,"PREFIX":7557,"ĠFIX":7558,"ĠCHAR":7559,"Double":7560,"nested":7561,"reat":7562,"tensor":7563,"attemp":7564,"Ġduration":7565,"Ġpartition":7566,"Ġaccording":7567,"RENT":7568,"Standard":7569,"skipUnless":7570,"ighbor":7571,"UND":7572,"plan":7573,"enrollment":7574,"Ġreally":7575,"courses":7576,"Ġcore":7577,"017":7578,"Ġdirty":7579,"catalog":7580,"][\\\"":7581,"asarray":7582,"figs":7583,"positive":7584,"Ġrouter":7585,"splitext":7586,"avg":7587,"vironment":7588,"\\\"></":7589,"METADATA":7590,"Symbol":7591,">\\\")\\":7592,"pth":7593,"ug":7594,"}.":7595,"pared":7596,"Ġangle":7597,"Ġdescri":7598,"tics":7599,"curr":7600,"ĠtokenTypes":7601,"Modi":7602,"NULL":7603,"Ġhard":7604,"Ġseed":7605,"ĠDB":7606,"Ġparsing":7607,"Active":7608,"[(":7609,"kb":7610,"nor":7611,"callable":7612,"1024":7613,"backup":7614,"Ġprec":7615,"Ġrout":7616,"Height":7617,"ĠProject":7618,"ĠStart":7619,"lash":7620,"(\\\"--":7621,"doctype":7622,"Ġpermission":7623,"cccc":7624,"MSG":7625,"Ġswim":7626,"'/":7627,"extras":7628,"Ġhidden":7629,"().\\":7630,"ĠĠĠĠĠĠĠĠĠĠĠĠĠĠĠĠĠĠĠĠĠĠĠĠĠĠĠĠĠĠĠĠĠĠĠĠĠĠĠĠĠĠĠĠĠĠ":7631,"VALUE":7632,"Ġpipe":7633,"Has":7634,"Help":7635,"]:":7636,"Ġorm":7637,"recur":7638,"sia":7639,"Ġproc":7640,"Setup":7641,"ĠTesting":7642,"ObjectBase":7643,"XXXX":7644,"Ġaggregate":7645,"dimension":7646,"ĠGEOS":7647,"nversion":7648,"pur":7649,"0907":7650,"ĠElement":7651,"'''":7652,"Engine":7653,"ond":7654,"istic":7655,"ĠĠĠĠĠĠĠĠĠĠĠĠĠĠĠĠĠĠĠĠĠĠĠĠĠĠĠĠĠĠĠĠĠĠĠĠĠĠĠĠĠĠĠĠĠĠĠĠĠĠ":7656,"bitr":7657,"SyntaxError":7658,"Ġglobals":7659,"GP":7660,"geometry":7661,"Ġnc":7662,"Ġss":7663,"serial":7664,"ĠSup":7665,"Def":7666,"6237":7667,"TagList":7668,"boundary":7669,"epoch":7670,"ticks":7671,"enum":7672,"Ġsolver":7673,"ĠFake":7674,"subtype":7675,"objs":7676,"parametrize":7677,"Rad":7678,"Ġcos":7679,"ĠClient":7680,"Ġordered":7681,"'},":7682,"thernet":7683,"collector":7684,"ENABLE":7685,"outer":7686,"beard":7687,"randint":7688,"oring":7689,"Ġthree":7690,"Ġforward":7691,"lace":7692,"ssue":7693,"ĠForeignKey":7694,"ĠMax":7695,"worker":7696,"Ġdispatch":7697,"Ġruns":7698,"Resc":7699,"Ġverbosity":7700,"locations":7701,"gramming":7702,"Global":7703,"Some":7704,"ban":7705,"Ġask":7706,"Ġegg":7707,"tract":7708,"ĠState":7709,"Ġscra":7710,"GINE":7711,"plit":7712,"styles":7713,"Ġ\\\"(":7714,"Ġwheel":7715,"ckbeard":7716,"estimators":7717,"vote":7718,"DIS":7719,"Ġlineno":7720,"Width":7721,"ĠKEY":7722,"erce":7723,"scene":7724,"__(*":7725,"Ġprevent":7726,"ĠRen":7727,"ABC":7728,"ĠFIXME":7729,"/(?":7730,"Iteration":7731,"Zero":7732,"bridge":7733,"Ġcsv":7734,"Ġds":7735,"protected":7736,"Ġenrollment":7737,"Ġapplic":7738,"URSE":7739,"MODULE":7740,"ĠZZ":7741,"cogni":7742,")}\\":7743,"FR":7744,"ussian":7745,"Ġvtk":7746,"ĠWhether":7747,"Raw":7748,"Ġcause":7749,"Ġdifference":7750,"LA":7751,"Push":7752,"cpy":7753,"seg":7754,"Ġna":7755,"ĠTask":7756,"Ġ*=":7757,"ĠUsed":7758,"Ġ404":7759,"Ġperm":7760,"Build":7761,"cpu":7762,"have":7763,"Ġsalt":7764,"console":7765,"Ġconstruct":7766,"pretty":7767,"Ġthreads":7768,"assertNotEqual":7769,"Ġassignment":7770,"#######\\":7771,"velopment":7772,"gui":7773,"Ġ':":7774,"Ġresi":7775,"Ġpadding":7776,"Ġacce":7777,"ĠOver":7778,"Ġmembers":7779,"Ġmuch":7780,"Call":7781,"Pi":7782,"mysql":7783,"Ġuri":7784,"002":7785,"(\\\"[":7786,"():":7787,"addCallback":7788,"figure":7789,"Ġunless":7790,"STRE":7791,"Ġcapi":7792,"6240":7793,"jected":7794,"ĠAdmin":7795,"Writer":7796,"OB":7797,"Sync":7798,"evalu":7799,"nmodule":7800,"Ġfs":7801,"ĠSU":7802,"usted":7803,"noptions":7804,"COMP":7805,"makedirs":7806,"escaped":7807,"deepcopy":7808,"Rect":7809,"pag":7810,"illi":7811,"Ġvrf":7812,"arity":7813,"Ġnamespacedef":7814,"started":7815,"Ġdigits":7816,"]],\\":7817,"Ġ=======":7818,"Ġ#################################":7819,"Ġ128":7820,"ĠPage":7821,"ĠAC":7822,"tended":7823,"LOAD":7824,"Multicast":7825,"ĠIndexError":7826,">=":7827,"kill":7828,"vtk":7829,"youtube":7830,"enforce":7831,"Ġenough":7832,"cene":7833,"ĠexportLiteral":7834,"10000":7835,"Main":7836,"\\\"{":7837,"inja":7838,"terms":7839,"ĠCustom":7840,"nippe":7841,"something":7842,"######\\":7843,"'',":7844,"Null":7845,"ian":7846,"tassert":7847,"reload":7848,"Ġ'*":7849,"Ġnullable":7850,"Ġinventory":7851,"Ġarticle":7852,"ĠEach":7853,"minutes":7854,"Ġchecked":7855,"Ġones":7856,"xyz":7857,"operations":7858,"ContentType":7859,"Ġrequirement":7860,"Ġboundary":7861,"Ġ'?":7862,"Ġ\\\"#":7863,"ints":7864,"codename":7865,"ĠLe":7866,"ĠMatrix":7867,"Deserialize":7868,"IDD":7869,"Product":7870,"COOK":7871,"ĠJo":7872,"failUnlessEqual":7873,"dapter":7874,"catenate":7875,"DT":7876,"OFF":7877,"WI":7878,"zilla":7879,"Ġtenant":7880,"concept":7881,"ĠIs":7882,"ĠReference":7883,"Keys":7884,"hasContent":7885,"certs":7886,"clip":7887,"Ġmonitor":7888,"impl":7889,"vendor":7890,"GB":7891,"Tlv":7892,"spider":7893,"ĠSource":7894,"locked":7895,"UTE":7896,"bian":7897,"enticate":7898,"Ġwriter":7899,"gid":7900,"guest":7901,"deno":7902,"Ġ'{}":7903,"lick":7904,"Ġrather":7905,"Ġmodulestore":7906,"curacy":7907,"mitive":7908,"UNK":7909,"Ġinitialize":7910,"warding":7911,"Ġetree":7912,"ĠSymbol":7913,"Var":7914,"Ġreview":7915,"Ġthing":7916,"Ġ#:":7917,"ĠSpecifi":7918,"endpoint":7919,"acquire":7920,"Ġprepare":7921,"ective":7922,"Ġconfigure":7923,"ĠVector":7924,"Encoder":7925,"Ġoverwrite":7926,"Ġidentity":7927,"xp":7928,"Ġcc":7929,"anel":7930,"Ġreferences":7931,"Ġthird":7932,"assertContains":7933,"union":7934,"ĠConvert":7935,"Ġ80":7936,"ĠArticle":7937,"Ġlocations":7938,"_='',":7939,"Part":7940,"ram":7941,"nto":7942,"ĠTH":7943,"Ġstuff":7944,"Instrument":7945,"Ġtuples":7946,"Ġprocessing":7947,"Builder":7948,"Transform":7949,"svg":7950,"ĠBytes":7951,"DEFIN":7952,"/',\\":7953,"033":7954,"Tri":7955,"]))":7956,"catch":7957,"ysi":7958,"rigin":7959,"('#":7960,"ĠStop":7961,"Ġfast":7962,"111":7963,"Series":7964,"Ġhashlib":7965,"THON":7966,"assertNotIn":7967,"$',\\":7968,"CAC":7969,"Multiple":7970,"srs":7971,"increment":7972,"Ġplease":7973,"typ":7974,"Ġgive":7975,"Ġproblems":7976,"ĠĠĠĠĠĠĠĠĠĠĠĠĠĠĠĠĠĠĠĠĠĠĠĠĠĠĠĠĠĠĠĠĠĠĠĠĠĠĠĠĠĠĠĠĠĠĠ":7977,"tpass":7978,"ĠOGR":7979,"refs":7980,"Ġsouth":7981,"Ġvals":7982,"Ġlonger":7983,"SOUR":7984,"Ġpipeline":7985,"SPACE":7986,"ORIZONT":7987,">[":7988,"tia":7989,"Ġam":7990,"Ġap":7991,"Ġcookies":7992,"Integ":7993,"focus":7994,"Ġmakes":7995,"precision":7996,"readlines":7997,"ĠRFC":7998,"appa":7999}